{"version":"1.0","truncation":{"max_length":128,"strategy":"LongestFirst","stride":0},"padding":{"strategy":{"Fixed":128},"direction":"Right","pad_to_multiple_of":null,"pad_id":1,"pad_type_id":0,"pad_token":"<pad>"},"added_tokens":[{"id":0,"special":true,"content":"<s>","single_word":false,"lstrip":false,"rstrip":false,"normalized":false},{"id":1,"special":true,"content":"<pad>","single_word":false,"lstrip":false,"rstrip":false,"normalized":false},{"id":2,"special":true,"content":"</s>","single_word":false,"lstrip":false,"rstrip":false,"normalized":false},{"id":3,"special":true,"content":"<unk>","single_word":false,"lstrip":false,"rstrip":false,"normalized":true},{"id":104,"special":true,"content":"[UNK]","single_word":false,"lstrip":false,"rstrip":false,"normalized":false},{"id":30526,"special":true,"content":"<mask>","single_word":false,"lstrip":true,"rstrip":false,"normalized":false}],"normalizer":{"type":"BertNormalizer","clean_text":true,"handle_chinese_chars":true,"strip_accents":null,"lowercase":true},"pre_tokenizer":{"type":"BertPreTokenizer"},"post_processor":{"type":"RobertaProcessing","sep":["</s>",2],"cls":["<s>",0],"trim_offsets":true,"add_prefix_space":false},"decoder":{"type":"WordPiece","prefix":"##","cleanup":true},"model":{"type":"WordPiece","unk_token":"[UNK]","continuing_subword_prefix":"##","max_input_chars_per_word":100,"vocab":{"<s>":0,"<pad>":1,"</s>":2,"<unk>":3,"[PAD]":4,"[unused0]":5,"[unused1]":6,"[unused2]":7,"[unused3]":8,"[unused4]":9,"[unused5]":10,"[unused6]":11,"[unused7]":12,"[unused8]":13,"[unused9]":14,"[unused10]":15,"[unused11]":16,"[unused12]":17,"[unused13]":18,"[unused14]":19,"[unused15]":20,"[unused16]":21,"[unused17]":22,"[unused18]":23,"[unused19]":24,"[unused20]":25,"[unused21]":26,"[unused22]":27,"[unused23]":28,"[unused24]":29,"[unused25]":30,"[unused26]":31,"[unused27]":32,"[unused28]":33,"[unused29]":34,"[unused30]":35,"[unused31]":36,"[unused32]":37,"[unused33]":38,"[unused34]":39,"[unused35]":40,"[unused36]":41,"[unused37]":42,"[unused38]":43,"[unused39]":44,"[unused40]":45,"[unused41]":46,"[unused42]":47,"[unused43]":48,"[unused44]":49,"[unused45]":50,"[unused46]":51,"[unused47]":52,"[unused48]":53,"[unused49]":54,"[unused50]":55,"[unused51]":56,"[unused52]":57,"[unused53]":58,"[unused54]":59,"[unused55]":60,"[unused56]":61,"[unused57]":62,"[unused58]":63,"[unused59]":64,"[unused60]":65,"[unused61]":66,"[unused62]":67,"[unused63]":68,"[unused64]":69,"[unused65]":70,"[unused66]":71,"[unused67]":72,"[unused68]":73,"[unused69]":74,"[unused70]":75,"[unused71]":76,"[unused72]":77,"[unused73]":78,"[unused74]":79,"[unused75]":80,"[unused76]":81,"[unused77]":82,"[unused78]":83,"[unused79]":84,"[unused80]":85,"[unused81]":86,"[unused82]":87,"[unused83]":88,"[unused84]":89,"[unused85]":90,"[unused86]":91,"[unused87]":92,"[unused88]":93,"[unused89]":94,"[unused90]":95,"[unused91]":96,"[unused92]":97,"[unused93]":98,"[unused94]":99,"[unused95]":100,"[unused96]":101,"[unused97]":102,"[unused98]":103,"[UNK]":104,"[CLS]":105,"[SEP]":106,"[MASK]":107,"[unused99]":108,"[unused100]":109,"[unused101]":110,"[unused102]":111,"[unused103]":112,"[unused104]":113,"[unused105]":114,"[unused106]":115,"[unused107]":116,"[unused108]":117,"[unused109]":118,"[unused110]":119,"[unused111]":120,"[unused112]":121,"[unused113]":122,"[unused114]":123,"[unused115]":124,"[unused116]":125,"[unused117]":126,"[unused118]":127,"[unused119]":128,"[unused120]":129,"[unused121]":130,"[unused122]":131,"[unused123]":132,"[unused124]":133,"[unused125]":134,"[unused126]":135,"[unused127]":136,"[unused128]":137,"[unused129]":138,"[unused130]":139,"[unused131]":140,"[unused132]":141,"[unused133]":142,"[unused134]":143,"[unused135]":144,"[unused136]":145,"[unused137]":146,"[unused138]":147,"[unused139]":148,"[unused140]":149,"[unused141]":150,"[unused142]":151,"[unused143]":152,"[unused144]":153,"[unused145]":154,"[unused146]":155,"[unused147]":156,"[unused148]":157,"[unused149]":158,"[unused150]":159,"[unused151]":160,"[unused152]":161,"[unused153]":162,"[unused154]":163,"[unused155]":164,"[unused156]":165,"[unused157]":166,"[unused158]":167,"[unused159]":168,"[unused160]":169,"[unused161]":170,"[unused162]":171,"[unused163]":172,"[unused164]":173,"[unused165]":174,"[unused166]":175,"[unused167]":176,"[unused168]":177,"[unused169]":178,"[unused170]":179,"[unused171]":180,"[unused172]":181,"[unused173]":182,"[unused174]":183,"[unused175]":184,"[unused176]":185,"[unused177]":186,"[unused178]":187,"[unused179]":188,"[unused180]":189,"[unused181]":190,"[unused182]":191,"[unused183]":192,"[unused184]":193,"[unused185]":194,"[unused186]":195,"[unused187]":196,"[unused188]":197,"[unused189]":198,"[unused190]":199,"[unused191]":200,"[unused192]":201,"[unused193]":202,"[unused194]":203,"[unused195]":204,"[unused196]":205,"[unused197]":206,"[unused198]":207,"[unused199]":208,"[unused200]":209,"[unused201]":210,"[unused202]":211,"[unused203]":212,"[unused204]":213,"[unused205]":214,"[unused206]":215,"[unused207]":216,"[unused208]":217,"[unused209]":218,"[unused210]":219,"[unused211]":220,"[unused212]":221,"[unused213]":222,"[unused214]":223,"[unused215]":224,"[unused216]":225,"[unused217]":226,"[unused218]":227,"[unused219]":228,"[unused220]":229,"[unused221]":230,"[unused222]":231,"[unused223]":232,"[unused224]":233,"[unused225]":234,"[unused226]":235,"[unused227]":236,"[unused228]":237,"[unused229]":238,"[unused230]":239,"[unused231]":240,"[unused232]":241,"[unused233]":242,"[unused234]":243,"[unused235]":244,"[unused236]":245,"[unused237]":246,"[unused238]":247,"[unused239]":248,"[unused240]":249,"[unused241]":250,"[unused242]":251,"[unused243]":252,"[unused244]":253,"[unused245]":254,"[unused246]":255,"[unused247]":256,"[unused248]":257,"[unused249]":258,"[unused250]":259,"[unused251]":260,"[unused252]":261,"[unused253]":262,"[unused254]":263,"[unused255]":264,"[unused256]":265,"[unused257]":266,"[unused258]":267,"[unused259]":268,"[unused260]":269,"[unused261]":270,"[unused262]":271,"[unused263]":272,"[unused264]":273,"[unused265]":274,"[unused266]":275,"[unused267]":276,"[unused268]":277,"[unused269]":278,"[unused270]":279,"[unused271]":280,"[unused272]":281,"[unused273]":282,"[unused274]":283,"[unused275]":284,"[unused276]":285,"[unused277]":286,"[unused278]":287,"[unused279]":288,"[unused280]":289,"[unused281]":290,"[unused282]":291,"[unused283]":292,"[unused284]":293,"[unused285]":294,"[unused286]":295,"[unused287]":296,"[unused288]":297,"[unused289]":298,"[unused290]":299,"[unused291]":300,"[unused292]":301,"[unused293]":302,"[unused294]":303,"[unused295]":304,"[unused296]":305,"[unused297]":306,"[unused298]":307,"[unused299]":308,"[unused300]":309,"[unused301]":310,"[unused302]":311,"[unused303]":312,"[unused304]":313,"[unused305]":314,"[unused306]":315,"[unused307]":316,"[unused308]":317,"[unused309]":318,"[unused310]":319,"[unused311]":320,"[unused312]":321,"[unused313]":322,"[unused314]":323,"[unused315]":324,"[unused316]":325,"[unused317]":326,"[unused318]":327,"[unused319]":328,"[unused320]":329,"[unused321]":330,"[unused322]":331,"[unused323]":332,"[unused324]":333,"[unused325]":334,"[unused326]":335,"[unused327]":336,"[unused328]":337,"[unused329]":338,"[unused330]":339,"[unused331]":340,"[unused332]":341,"[unused333]":342,"[unused334]":343,"[unused335]":344,"[unused336]":345,"[unused337]":346,"[unused338]":347,"[unused339]":348,"[unused340]":349,"[unused341]":350,"[unused342]":351,"[unused343]":352,"[unused344]":353,"[unused345]":354,"[unused346]":355,"[unused347]":356,"[unused348]":357,"[unused349]":358,"[unused350]":359,"[unused351]":360,"[unused352]":361,"[unused353]":362,"[unused354]":363,"[unused355]":364,"[unused356]":365,"[unused357]":366,"[unused358]":367,"[unused359]":368,"[unused360]":369,"[unused361]":370,"[unused362]":371,"[unused363]":372,"[unused364]":373,"[unused365]":374,"[unused366]":375,"[unused367]":376,"[unused368]":377,"[unused369]":378,"[unused370]":379,"[unused371]":380,"[unused372]":381,"[unused373]":382,"[unused374]":383,"[unused375]":384,"[unused376]":385,"[unused377]":386,"[unused378]":387,"[unused379]":388,"[unused380]":389,"[unused381]":390,"[unused382]":391,"[unused383]":392,"[unused384]":393,"[unused385]":394,"[unused386]":395,"[unused387]":396,"[unused388]":397,"[unused389]":398,"[unused390]":399,"[unused391]":400,"[unused392]":401,"[unused393]":402,"[unused394]":403,"[unused395]":404,"[unused396]":405,"[unused397]":406,"[unused398]":407,"[unused399]":408,"[unused400]":409,"[unused401]":410,"[unused402]":411,"[unused403]":412,"[unused404]":413,"[unused405]":414,"[unused406]":415,"[unused407]":416,"[unused408]":417,"[unused409]":418,"[unused410]":419,"[unused411]":420,"[unused412]":421,"[unused413]":422,"[unused414]":423,"[unused415]":424,"[unused416]":425,"[unused417]":426,"[unused418]":427,"[unused419]":428,"[unused420]":429,"[unused421]":430,"[unused422]":431,"[unused423]":432,"[unused424]":433,"[unused425]":434,"[unused426]":435,"[unused427]":436,"[unused428]":437,"[unused429]":438,"[unused430]":439,"[unused431]":440,"[unused432]":441,"[unused433]":442,"[unused434]":443,"[unused435]":444,"[unused436]":445,"[unused437]":446,"[unused438]":447,"[unused439]":448,"[unused440]":449,"[unused441]":450,"[unused442]":451,"[unused443]":452,"[unused444]":453,"[unused445]":454,"[unused446]":455,"[unused447]":456,"[unused448]":457,"[unused449]":458,"[unused450]":459,"[unused451]":460,"[unused452]":461,"[unused453]":462,"[unused454]":463,"[unused455]":464,"[unused456]":465,"[unused457]":466,"[unused458]":467,"[unused459]":468,"[unused460]":469,"[unused461]":470,"[unused462]":471,"[unused463]":472,"[unused464]":473,"[unused465]":474,"[unused466]":475,"[unused467]":476,"[unused468]":477,"[unused469]":478,"[unused470]":479,"[unused471]":480,"[unused472]":481,"[unused473]":482,"[unused474]":483,"[unused475]":484,"[unused476]":485,"[unused477]":486,"[unused478]":487,"[unused479]":488,"[unused480]":489,"[unused481]":490,"[unused482]":491,"[unused483]":492,"[unused484]":493,"[unused485]":494,"[unused486]":495,"[unused487]":496,"[unused488]":497,"[unused489]":498,"[unused490]":499,"[unused491]":500,"[unused492]":501,"[unused493]":502,"[unused494]":503,"[unused495]":504,"[unused496]":505,"[unused497]":506,"[unused498]":507,"[unused499]":508,"[unused500]":509,"[unused501]":510,"[unused502]":511,"[unused503]":512,"[unused504]":513,"[unused505]":514,"[unused506]":515,"[unused507]":516,"[unused508]":517,"[unused509]":518,"[unused510]":519,"[unused511]":520,"[unused512]":521,"[unused513]":522,"[unused514]":523,"[unused515]":524,"[unused516]":525,"[unused517]":526,"[unused518]":527,"[unused519]":528,"[unused520]":529,"[unused521]":530,"[unused522]":531,"[unused523]":532,"[unused524]":533,"[unused525]":534,"[unused526]":535,"[unused527]":536,"[unused528]":537,"[unused529]":538,"[unused530]":539,"[unused531]":540,"[unused532]":541,"[unused533]":542,"[unused534]":543,"[unused535]":544,"[unused536]":545,"[unused537]":546,"[unused538]":547,"[unused539]":548,"[unused540]":549,"[unused541]":550,"[unused542]":551,"[unused543]":552,"[unused544]":553,"[unused545]":554,"[unused546]":555,"[unused547]":556,"[unused548]":557,"[unused549]":558,"[unused550]":559,"[unused551]":560,"[unused552]":561,"[unused553]":562,"[unused554]":563,"[unused555]":564,"[unused556]":565,"[unused557]":566,"[unused558]":567,"[unused559]":568,"[unused560]":569,"[unused561]":570,"[unused562]":571,"[unused563]":572,"[unused564]":573,"[unused565]":574,"[unused566]":575,"[unused567]":576,"[unused568]":577,"[unused569]":578,"[unused570]":579,"[unused571]":580,"[unused572]":581,"[unused573]":582,"[unused574]":583,"[unused575]":584,"[unused576]":585,"[unused577]":586,"[unused578]":587,"[unused579]":588,"[unused580]":589,"[unused581]":590,"[unused582]":591,"[unused583]":592,"[unused584]":593,"[unused585]":594,"[unused586]":595,"[unused587]":596,"[unused588]":597,"[unused589]":598,"[unused590]":599,"[unused591]":600,"[unused592]":601,"[unused593]":602,"[unused594]":603,"[unused595]":604,"[unused596]":605,"[unused597]":606,"[unused598]":607,"[unused599]":608,"[unused600]":609,"[unused601]":610,"[unused602]":611,"[unused603]":612,"[unused604]":613,"[unused605]":614,"[unused606]":615,"[unused607]":616,"[unused608]":617,"[unused609]":618,"[unused610]":619,"[unused611]":620,"[unused612]":621,"[unused613]":622,"[unused614]":623,"[unused615]":624,"[unused616]":625,"[unused617]":626,"[unused618]":627,"[unused619]":628,"[unused620]":629,"[unused621]":630,"[unused622]":631,"[unused623]":632,"[unused624]":633,"[unused625]":634,"[unused626]":635,"[unused627]":636,"[unused628]":637,"[unused629]":638,"[unused630]":639,"[unused631]":640,"[unused632]":641,"[unused633]":642,"[unused634]":643,"[unused635]":644,"[unused636]":645,"[unused637]":646,"[unused638]":647,"[unused639]":648,"[unused640]":649,"[unused641]":650,"[unused642]":651,"[unused643]":652,"[unused644]":653,"[unused645]":654,"[unused646]":655,"[unused647]":656,"[unused648]":657,"[unused649]":658,"[unused650]":659,"[unused651]":660,"[unused652]":661,"[unused653]":662,"[unused654]":663,"[unused655]":664,"[unused656]":665,"[unused657]":666,"[unused658]":667,"[unused659]":668,"[unused660]":669,"[unused661]":670,"[unused662]":671,"[unused663]":672,"[unused664]":673,"[unused665]":674,"[unused666]":675,"[unused667]":676,"[unused668]":677,"[unused669]":678,"[unused670]":679,"[unused671]":680,"[unused672]":681,"[unused673]":682,"[unused674]":683,"[unused675]":684,"[unused676]":685,"[unused677]":686,"[unused678]":687,"[unused679]":688,"[unused680]":689,"[unused681]":690,"[unused682]":691,"[unused683]":692,"[unused684]":693,"[unused685]":694,"[unused686]":695,"[unused687]":696,"[unused688]":697,"[unused689]":698,"[unused690]":699,"[unused691]":700,"[unused692]":701,"[unused693]":702,"[unused694]":703,"[unused695]":704,"[unused696]":705,"[unused697]":706,"[unused698]":707,"[unused699]":708,"[unused700]":709,"[unused701]":710,"[unused702]":711,"[unused703]":712,"[unused704]":713,"[unused705]":714,"[unused706]":715,"[unused707]":716,"[unused708]":717,"[unused709]":718,"[unused710]":719,"[unused711]":720,"[unused712]":721,"[unused713]":722,"[unused714]":723,"[unused715]":724,"[unused716]":725,"[unused717]":726,"[unused718]":727,"[unused719]":728,"[unused720]":729,"[unused721]":730,"[unused722]":731,"[unused723]":732,"[unused724]":733,"[unused725]":734,"[unused726]":735,"[unused727]":736,"[unused728]":737,"[unused729]":738,"[unused730]":739,"[unused731]":740,"[unused732]":741,"[unused733]":742,"[unused734]":743,"[unused735]":744,"[unused736]":745,"[unused737]":746,"[unused738]":747,"[unused739]":748,"[unused740]":749,"[unused741]":750,"[unused742]":751,"[unused743]":752,"[unused744]":753,"[unused745]":754,"[unused746]":755,"[unused747]":756,"[unused748]":757,"[unused749]":758,"[unused750]":759,"[unused751]":760,"[unused752]":761,"[unused753]":762,"[unused754]":763,"[unused755]":764,"[unused756]":765,"[unused757]":766,"[unused758]":767,"[unused759]":768,"[unused760]":769,"[unused761]":770,"[unused762]":771,"[unused763]":772,"[unused764]":773,"[unused765]":774,"[unused766]":775,"[unused767]":776,"[unused768]":777,"[unused769]":778,"[unused770]":779,"[unused771]":780,"[unused772]":781,"[unused773]":782,"[unused774]":783,"[unused775]":784,"[unused776]":785,"[unused777]":786,"[unused778]":787,"[unused779]":788,"[unused780]":789,"[unused781]":790,"[unused782]":791,"[unused783]":792,"[unused784]":793,"[unused785]":794,"[unused786]":795,"[unused787]":796,"[unused788]":797,"[unused789]":798,"[unused790]":799,"[unused791]":800,"[unused792]":801,"[unused793]":802,"[unused794]":803,"[unused795]":804,"[unused796]":805,"[unused797]":806,"[unused798]":807,"[unused799]":808,"[unused800]":809,"[unused801]":810,"[unused802]":811,"[unused803]":812,"[unused804]":813,"[unused805]":814,"[unused806]":815,"[unused807]":816,"[unused808]":817,"[unused809]":818,"[unused810]":819,"[unused811]":820,"[unused812]":821,"[unused813]":822,"[unused814]":823,"[unused815]":824,"[unused816]":825,"[unused817]":826,"[unused818]":827,"[unused819]":828,"[unused820]":829,"[unused821]":830,"[unused822]":831,"[unused823]":832,"[unused824]":833,"[unused825]":834,"[unused826]":835,"[unused827]":836,"[unused828]":837,"[unused829]":838,"[unused830]":839,"[unused831]":840,"[unused832]":841,"[unused833]":842,"[unused834]":843,"[unused835]":844,"[unused836]":845,"[unused837]":846,"[unused838]":847,"[unused839]":848,"[unused840]":849,"[unused841]":850,"[unused842]":851,"[unused843]":852,"[unused844]":853,"[unused845]":854,"[unused846]":855,"[unused847]":856,"[unused848]":857,"[unused849]":858,"[unused850]":859,"[unused851]":860,"[unused852]":861,"[unused853]":862,"[unused854]":863,"[unused855]":864,"[unused856]":865,"[unused857]":866,"[unused858]":867,"[unused859]":868,"[unused860]":869,"[unused861]":870,"[unused862]":871,"[unused863]":872,"[unused864]":873,"[unused865]":874,"[unused866]":875,"[unused867]":876,"[unused868]":877,"[unused869]":878,"[unused870]":879,"[unused871]":880,"[unused872]":881,"[unused873]":882,"[unused874]":883,"[unused875]":884,"[unused876]":885,"[unused877]":886,"[unused878]":887,"[unused879]":888,"[unused880]":889,"[unused881]":890,"[unused882]":891,"[unused883]":892,"[unused884]":893,"[unused885]":894,"[unused886]":895,"[unused887]":896,"[unused888]":897,"[unused889]":898,"[unused890]":899,"[unused891]":900,"[unused892]":901,"[unused893]":902,"[unused894]":903,"[unused895]":904,"[unused896]":905,"[unused897]":906,"[unused898]":907,"[unused899]":908,"[unused900]":909,"[unused901]":910,"[unused902]":911,"[unused903]":912,"[unused904]":913,"[unused905]":914,"[unused906]":915,"[unused907]":916,"[unused908]":917,"[unused909]":918,"[unused910]":919,"[unused911]":920,"[unused912]":921,"[unused913]":922,"[unused914]":923,"[unused915]":924,"[unused916]":925,"[unused917]":926,"[unused918]":927,"[unused919]":928,"[unused920]":929,"[unused921]":930,"[unused922]":931,"[unused923]":932,"[unused924]":933,"[unused925]":934,"[unused926]":935,"[unused927]":936,"[unused928]":937,"[unused929]":938,"[unused930]":939,"[unused931]":940,"[unused932]":941,"[unused933]":942,"[unused934]":943,"[unused935]":944,"[unused936]":945,"[unused937]":946,"[unused938]":947,"[unused939]":948,"[unused940]":949,"[unused941]":950,"[unused942]":951,"[unused943]":952,"[unused944]":953,"[unused945]":954,"[unused946]":955,"[unused947]":956,"[unused948]":957,"[unused949]":958,"[unused950]":959,"[unused951]":960,"[unused952]":961,"[unused953]":962,"[unused954]":963,"[unused955]":964,"[unused956]":965,"[unused957]":966,"[unused958]":967,"[unused959]":968,"[unused960]":969,"[unused961]":970,"[unused962]":971,"[unused963]":972,"[unused964]":973,"[unused965]":974,"[unused966]":975,"[unused967]":976,"[unused968]":977,"[unused969]":978,"[unused970]":979,"[unused971]":980,"[unused972]":981,"[unused973]":982,"[unused974]":983,"[unused975]":984,"[unused976]":985,"[unused977]":986,"[unused978]":987,"[unused979]":988,"[unused980]":989,"[unused981]":990,"[unused982]":991,"[unused983]":992,"[unused984]":993,"[unused985]":994,"[unused986]":995,"[unused987]":996,"[unused988]":997,"[unused989]":998,"[unused990]":999,"[unused991]":1000,"[unused992]":1001,"[unused993]":1002,"!":1003,"\"":1004,"#":1005,"$":1006,"%":1007,"&":1008,"'":1009,"(":1010,")":1011,"*":1012,"+":1013,",":1014,"-":1015,".":1016,"/":1017,"0":1018,"1":1019,"2":1020,"3":1021,"4":1022,"5":1023,"6":1024,"7":1025,"8":1026,"9":1027,":":1028,";":1029,"<":1030,"=":1031,">":1032,"?":1033,"@":1034,"[":1035,"\\":1036,"]":1037,"^":1038,"_":1039,"`":1040,"a":1041,"b":1042,"c":1043,"d":1044,"e":1045,"f":1046,"g":1047,"h":1048,"i":1049,"j":1050,"k":1051,"l":1052,"m":1053,"n":1054,"o":1055,"p":1056,"q":1057,"r":1058,"s":1059,"t":1060,"u":1061,"v":1062,"w":1063,"x":1064,"y":1065,"z":1066,"{":1067,"|":1068,"}":1069,"~":1070,"¡":1071,"¢":1072,"£":1073,"¤":1074,"¥":1075,"¦":1076,"§":1077,"¨":1078,"©":1079,"ª":1080,"«":1081,"¬":1082,"®":1083,"°":1084,"±":1085,"²":1086,"³":1087,"´":1088,"µ":1089,"¶":1090,"·":1091,"¹":1092,"º":1093,"»":1094,"¼":1095,"½":1096,"¾":1097,"¿":1098,"×":1099,"ß":1100,"æ":1101,"ð":1102,"÷":1103,"ø":1104,"þ":1105,"đ":1106,"ħ":1107,"ı":1108,"ł":1109,"ŋ":1110,"œ":1111,"ƒ":1112,"ɐ":1113,"ɑ":1114,"ɒ":1115,"ɔ":1116,"ɕ":1117,"ə":1118,"ɛ":1119,"ɡ":1120,"ɣ":1121,"ɨ":1122,"ɪ":1123,"ɫ":1124,"ɬ":1125,"ɯ":1126,"ɲ":1127,"ɴ":1128,"ɹ":1129,"ɾ":1130,"ʀ":1131,"ʁ":1132,"ʂ":1133,"ʃ":1134,"ʉ":1135,"ʊ":1136,"ʋ":1137,"ʌ":1138,"ʎ":1139,"ʐ":1140,"ʑ":1141,"ʒ":1142,"ʔ":1143,"ʰ":1144,"ʲ":1145,"ʳ":1146,"ʷ":1147,"ʸ":1148,"ʻ":1149,"ʼ":1150,"ʾ":1151,"ʿ":1152,"ˈ":1153,"ː":1154,"ˡ":1155,"ˢ":1156,"ˣ":1157,"ˤ":1158,"α":1159,"β":1160,"γ":1161,"δ":1162,"ε":1163,"ζ":1164,"η":1165,"θ":1166,"ι":1167,"κ":1168,"λ":1169,"μ":1170,"ν":1171,"ξ":1172,"ο":1173,"π":1174,"ρ":1175,"ς":1176,"σ":1177,"τ":1178,"υ":1179,"φ":1180,"χ":1181,"ψ":1182,"ω":1183,"а":1184,"б":1185,"в":1186,"г":1187,"д":1188,"е":1189,"ж":1190,"з":1191,"и":1192,"к":1193,"л":1194,"м":1195,"н":1196,"о":1197,"п":1198,"р":1199,"с":1200,"т":1201,"у":1202,"ф":1203,"х":1204,"ц":1205,"ч":1206,"ш":1207,"щ":1208,"ъ":1209,"ы":1210,"ь":1211,"э":1212,"ю":1213,"я":1214,"ђ":1215,"є":1216,"і":1217,"ј":1218,"љ":1219,"њ":1220,"ћ":1221,"ӏ":1222,"ա":1223,"բ":1224,"գ":1225,"դ":1226,"ե":1227,"թ":1228,"ի":1229,"լ":1230,"կ":1231,"հ":1232,"մ":1233,"յ":1234,"ն":1235,"ո":1236,"պ":1237,"ս":1238,"վ":1239,"տ":1240,"ր":1241,"ւ":1242,"ք":1243,"־":1244,"א":1245,"ב":1246,"ג":1247,"ד":1248,"ה":1249,"ו":1250,"ז":1251,"ח":1252,"ט":1253,"י":1254,"ך":1255,"כ":1256,"ל":1257,"ם":1258,"מ":1259,"ן":1260,"נ":1261,"ס":1262,"ע":1263,"ף":1264,"פ":1265,"ץ":1266,"צ":1267,"ק":1268,"ר":1269,"ש":1270,"ת":1271,"،":1272,"ء":1273,"ا":1274,"ب":1275,"ة":1276,"ت":1277,"ث":1278,"ج":1279,"ح":1280,"خ":1281,"د":1282,"ذ":1283,"ر":1284,"ز":1285,"س":1286,"ش":1287,"ص":1288,"ض":1289,"ط":1290,"ظ":1291,"ع":1292,"غ":1293,"ـ":1294,"ف":1295,"ق":1296,"ك":1297,"ل":1298,"م":1299,"ن":1300,"ه":1301,"و":1302,"ى":1303,"ي":1304,"ٹ":1305,"پ":1306,"چ":1307,"ک":1308,"گ":1309,"ں":1310,"ھ":1311,"ہ":1312,"ی":1313,"ے":1314,"अ":1315,"आ":1316,"उ":1317,"ए":1318,"क":1319,"ख":1320,"ग":1321,"च":1322,"ज":1323,"ट":1324,"ड":1325,"ण":1326,"त":1327,"थ":1328,"द":1329,"ध":1330,"न":1331,"प":1332,"ब":1333,"भ":1334,"म":1335,"य":1336,"र":1337,"ल":1338,"व":1339,"श":1340,"ष":1341,"स":1342,"ह":1343,"ा":1344,"ि":1345,"ी":1346,"ो":1347,"।":1348,"॥":1349,"ং":1350,"অ":1351,"আ":1352,"ই":1353,"উ":1354,"এ":1355,"ও":1356,"ক":1357,"খ":1358,"গ":1359,"চ":1360,"ছ":1361,"জ":1362,"ট":1363,"ড":1364,"ণ":1365,"ত":1366,"থ":1367,"দ":1368,"ধ":1369,"ন":1370,"প":1371,"ব":1372,"ভ":1373,"ম":1374,"য":1375,"র":1376,"ল":1377,"শ":1378,"ষ":1379,"স":1380,"হ":1381,"া":1382,"ি":1383,"ী":1384,"ে":1385,"க":1386,"ச":1387,"ட":1388,"த":1389,"ந":1390,"ன":1391,"ப":1392,"ம":1393,"ய":1394,"ர":1395,"ல":1396,"ள":1397,"வ":1398,"ா":1399,"ி":1400,"ு":1401,"ே":1402,"ை":1403,"ನ":1404,"ರ":1405,"ಾ":1406,"ක":1407,"ය":1408,"ර":1409,"ල":1410,"ව":1411,"ා":1412,"ก":1413,"ง":1414,"ต":1415,"ท":1416,"น":1417,"พ":1418,"ม":1419,"ย":1420,"ร":1421,"ล":1422,"ว":1423,"ส":1424,"อ":1425,"า":1426,"เ":1427,"་":1428,"།":1429,"ག":1430,"ང":1431,"ད":1432,"ན":1433,"པ":1434,"བ":1435,"མ":1436,"འ":1437,"ར":1438,"ལ":1439,"ས":1440,"မ":1441,"ა":1442,"ბ":1443,"გ":1444,"დ":1445,"ე":1446,"ვ":1447,"თ":1448,"ი":1449,"კ":1450,"ლ":1451,"მ":1452,"ნ":1453,"ო":1454,"რ":1455,"ს":1456,"ტ":1457,"უ":1458,"ᄀ":1459,"ᄂ":1460,"ᄃ":1461,"ᄅ":1462,"ᄆ":1463,"ᄇ":1464,"ᄉ":1465,"ᄊ":1466,"ᄋ":1467,"ᄌ":1468,"ᄎ":1469,"ᄏ":1470,"ᄐ":1471,"ᄑ":1472,"ᄒ":1473,"ᅡ":1474,"ᅢ":1475,"ᅥ":1476,"ᅦ":1477,"ᅧ":1478,"ᅩ":1479,"ᅪ":1480,"ᅭ":1481,"ᅮ":1482,"ᅯ":1483,"ᅲ":1484,"ᅳ":1485,"ᅴ":1486,"ᅵ":1487,"ᆨ":1488,"ᆫ":1489,"ᆯ":1490,"ᆷ":1491,"ᆸ":1492,"ᆼ":1493,"ᴬ":1494,"ᴮ":1495,"ᴰ":1496,"ᴵ":1497,"ᴺ":1498,"ᵀ":1499,"ᵃ":1500,"ᵇ":1501,"ᵈ":1502,"ᵉ":1503,"ᵍ":1504,"ᵏ":1505,"ᵐ":1506,"ᵒ":1507,"ᵖ":1508,"ᵗ":1509,"ᵘ":1510,"ᵢ":1511,"ᵣ":1512,"ᵤ":1513,"ᵥ":1514,"ᶜ":1515,"ᶠ":1516,"‐":1517,"‑":1518,"‒":1519,"–":1520,"—":1521,"―":1522,"‖":1523,"‘":1524,"’":1525,"‚":1526,"“":1527,"”":1528,"„":1529,"†":1530,"‡":1531,"•":1532,"…":1533,"‰":1534,"′":1535,"″":1536,"›":1537,"‿":1538,"⁄":1539,"⁰":1540,"ⁱ":1541,"⁴":1542,"⁵":1543,"⁶":1544,"⁷":1545,"⁸":1546,"⁹":1547,"⁺":1548,"⁻":1549,"ⁿ":1550,"₀":1551,"₁":1552,"₂":1553,"₃":1554,"₄":1555,"₅":1556,"₆":1557,"₇":1558,"₈":1559,"₉":1560,"₊":1561,"₍":1562,"₎":1563,"ₐ":1564,"ₑ":1565,"ₒ":1566,"ₓ":1567,"ₕ":1568,"ₖ":1569,"ₗ":1570,"ₘ":1571,"ₙ":1572,"ₚ":1573,"ₛ":1574,"ₜ":1575,"₤":1576,"₩":1577,"€":1578,"₱":1579,"₹":1580,"ℓ":1581,"№":1582,"ℝ":1583,"™":1584,"⅓":1585,"⅔":1586,"←":1587,"↑":1588,"→":1589,"↓":1590,"↔":1591,"↦":1592,"⇄":1593,"⇌":1594,"⇒":1595,"∂":1596,"∅":1597,"∆":1598,"∇":1599,"∈":1600,"−":1601,"∗":1602,"∘":1603,"√":1604,"∞":1605,"∧":1606,"∨":1607,"∩":1608,"∪":1609,"≈":1610,"≡":1611,"≤":1612,"≥":1613,"⊂":1614,"⊆":1615,"⊕":1616,"⊗":1617,"⋅":1618,"─":1619,"│":1620,"■":1621,"▪":1622,"●":1623,"★":1624,"☆":1625,"☉":1626,"♠":1627,"♣":1628,"♥":1629,"♦":1630,"♭":1631,"♯":1632,"⟨":1633,"⟩":1634,"ⱼ":1635,"⺩":1636,"⺼":1637,"⽥":1638,"、":1639,"。":1640,"〈":1641,"〉":1642,"《":1643,"》":1644,"「":1645,"」":1646,"『":1647,"』":1648,"〜":1649,"あ":1650,"い":1651,"う":1652,"え":1653,"お":1654,"か":1655,"き":1656,"く":1657,"け":1658,"こ":1659,"さ":1660,"し":1661,"す":1662,"せ":1663,"そ":1664,"た":1665,"ち":1666,"っ":1667,"つ":1668,"て":1669,"と":1670,"な":1671,"に":1672,"ぬ":1673,"ね":1674,"の":1675,"は":1676,"ひ":1677,"ふ":1678,"へ":1679,"ほ":1680,"ま":1681,"み":1682,"む":1683,"め":1684,"も":1685,"や":1686,"ゆ":1687,"よ":1688,"ら":1689,"り":1690,"る":1691,"れ":1692,"ろ":1693,"を":1694,"ん":1695,"ァ":1696,"ア":1697,"ィ":1698,"イ":1699,"ウ":1700,"ェ":1701,"エ":1702,"オ":1703,"カ":1704,"キ":1705,"ク":1706,"ケ":1707,"コ":1708,"サ":1709,"シ":1710,"ス":1711,"セ":1712,"タ":1713,"チ":1714,"ッ":1715,"ツ":1716,"テ":1717,"ト":1718,"ナ":1719,"ニ":1720,"ノ":1721,"ハ":1722,"ヒ":1723,"フ":1724,"ヘ":1725,"ホ":1726,"マ":1727,"ミ":1728,"ム":1729,"メ":1730,"モ":1731,"ャ":1732,"ュ":1733,"ョ":1734,"ラ":1735,"リ":1736,"ル":1737,"レ":1738,"ロ":1739,"ワ":1740,"ン":1741,"・":1742,"ー":1743,"一":1744,"三":1745,"上":1746,"下":1747,"不":1748,"世":1749,"中":1750,"主":1751,"久":1752,"之":1753,"也":1754,"事":1755,"二":1756,"五":1757,"井":1758,"京":1759,"人":1760,"亻":1761,"仁":1762,"介":1763,"代":1764,"仮":1765,"伊":1766,"会":1767,"佐":1768,"侍":1769,"保":1770,"信":1771,"健":1772,"元":1773,"光":1774,"八":1775,"公":1776,"内":1777,"出":1778,"分":1779,"前":1780,"劉":1781,"力":1782,"加":1783,"勝":1784,"北":1785,"区":1786,"十":1787,"千":1788,"南":1789,"博":1790,"原":1791,"口":1792,"古":1793,"史":1794,"司":1795,"合":1796,"吉":1797,"同":1798,"名":1799,"和":1800,"囗":1801,"四":1802,"国":1803,"國":1804,"土":1805,"地":1806,"坂":1807,"城":1808,"堂":1809,"場":1810,"士":1811,"夏":1812,"外":1813,"大":1814,"天":1815,"太":1816,"夫":1817,"奈":1818,"女":1819,"子":1820,"学":1821,"宀":1822,"宇":1823,"安":1824,"宗":1825,"定":1826,"宣":1827,"宮":1828,"家":1829,"宿":1830,"寺":1831,"將":1832,"小":1833,"尚":1834,"山":1835,"岡":1836,"島":1837,"崎":1838,"川":1839,"州":1840,"巿":1841,"帝":1842,"平":1843,"年":1844,"幸":1845,"广":1846,"弘":1847,"張":1848,"彳":1849,"後":1850,"御":1851,"德":1852,"心":1853,"忄":1854,"志":1855,"忠":1856,"愛":1857,"成":1858,"我":1859,"戦":1860,"戸":1861,"手":1862,"扌":1863,"政":1864,"文":1865,"新":1866,"方":1867,"日":1868,"明":1869,"星":1870,"春":1871,"昭":1872,"智":1873,"曲":1874,"書":1875,"月":1876,"有":1877,"朝":1878,"木":1879,"本":1880,"李":1881,"村":1882,"東":1883,"松":1884,"林":1885,"森":1886,"楊":1887,"樹":1888,"橋":1889,"歌":1890,"止":1891,"正":1892,"武":1893,"比":1894,"氏":1895,"民":1896,"水":1897,"氵":1898,"氷":1899,"永":1900,"江":1901,"沢":1902,"河":1903,"治":1904,"法":1905,"海":1906,"清":1907,"漢":1908,"瀬":1909,"火":1910,"版":1911,"犬":1912,"王":1913,"生":1914,"田":1915,"男":1916,"疒":1917,"発":1918,"白":1919,"的":1920,"皇":1921,"目":1922,"相":1923,"省":1924,"真":1925,"石":1926,"示":1927,"社":1928,"神":1929,"福":1930,"禾":1931,"秀":1932,"秋":1933,"空":1934,"立":1935,"章":1936,"竹":1937,"糹":1938,"美":1939,"義":1940,"耳":1941,"良":1942,"艹":1943,"花":1944,"英":1945,"華":1946,"葉":1947,"藤":1948,"行":1949,"街":1950,"西":1951,"見":1952,"訁":1953,"語":1954,"谷":1955,"貝":1956,"貴":1957,"車":1958,"軍":1959,"辶":1960,"道":1961,"郎":1962,"郡":1963,"部":1964,"都":1965,"里":1966,"野":1967,"金":1968,"鈴":1969,"镇":1970,"長":1971,"門":1972,"間":1973,"阝":1974,"阿":1975,"陳":1976,"陽":1977,"雄":1978,"青":1979,"面":1980,"風":1981,"食":1982,"香":1983,"馬":1984,"高":1985,"龍":1986,"龸":1987,"ﬁ":1988,"ﬂ":1989,"！":1990,"（":1991,"）":1992,"，":1993,"－":1994,"．":1995,"／":1996,"：":1997,"？":1998,"～":1999,"the":2000,"of":2001,"and":2002,"in":2003,"to":2004,"was":2005,"he":2006,"is":2007,"as":2008,"for":2009,"on":2010,"with":2011,"that":2012,"it":2013,"his":2014,"by":2015,"at":2016,"from":2017,"her":2018,"##s":2019,"she":2020,"you":2021,"had":2022,"an":2023,"were":2024,"but":2025,"be":2026,"this":2027,"are":2028,"not":2029,"my":2030,"they":2031,"one":2032,"which":2033,"or":2034,"have":2035,"him":2036,"me":2037,"first":2038,"all":2039,"also":2040,"their":2041,"has":2042,"up":2043,"who":2044,"out":2045,"been":2046,"when":2047,"after":2048,"there":2049,"into":2050,"new":2051,"two":2052,"its":2053,"##a":2054,"time":2055,"would":2056,"no":2057,"what":2058,"about":2059,"said":2060,"we":2061,"over":2062,"then":2063,"other":2064,"so":2065,"more":2066,"##e":2067,"can":2068,"if":2069,"like":2070,"back":2071,"them":2072,"only":2073,"some":2074,"could":2075,"##i":2076,"where":2077,"just":2078,"##ing":2079,"during":2080,"before":2081,"##n":2082,"do":2083,"##o":2084,"made":2085,"school":2086,"through":2087,"than":2088,"now":2089,"years":2090,"most":2091,"world":2092,"may":2093,"between":2094,"down":2095,"well":2096,"three":2097,"##d":2098,"year":2099,"while":2100,"will":2101,"##ed":2102,"##r":2103,"##y":2104,"later":2105,"##t":2106,"city":2107,"under":2108,"around":2109,"did":2110,"such":2111,"being":2112,"used":2113,"state":2114,"people":2115,"part":2116,"know":2117,"against":2118,"your":2119,"many":2120,"second":2121,"university":2122,"both":2123,"national":2124,"##er":2125,"these":2126,"don":2127,"known":2128,"off":2129,"way":2130,"until":2131,"re":2132,"how":2133,"even":2134,"get":2135,"head":2136,"...":2137,"didn":2138,"##ly":2139,"team":2140,"american":2141,"because":2142,"de":2143,"##l":2144,"born":2145,"united":2146,"film":2147,"since":2148,"still":2149,"long":2150,"work":2151,"south":2152,"us":2153,"became":2154,"any":2155,"high":2156,"again":2157,"day":2158,"family":2159,"see":2160,"right":2161,"man":2162,"eyes":2163,"house":2164,"season":2165,"war":2166,"states":2167,"including":2168,"took":2169,"life":2170,"north":2171,"same":2172,"each":2173,"called":2174,"name":2175,"much":2176,"place":2177,"however":2178,"go":2179,"four":2180,"group":2181,"another":2182,"found":2183,"won":2184,"area":2185,"here":2186,"going":2187,"10":2188,"away":2189,"series":2190,"left":2191,"home":2192,"music":2193,"best":2194,"make":2195,"hand":2196,"number":2197,"company":2198,"several":2199,"never":2200,"last":2201,"john":2202,"000":2203,"very":2204,"album":2205,"take":2206,"end":2207,"good":2208,"too":2209,"following":2210,"released":2211,"game":2212,"played":2213,"little":2214,"began":2215,"district":2216,"##m":2217,"old":2218,"want":2219,"those":2220,"side":2221,"held":2222,"own":2223,"early":2224,"county":2225,"ll":2226,"league":2227,"use":2228,"west":2229,"##u":2230,"face":2231,"think":2232,"##es":2233,"2010":2234,"government":2235,"##h":2236,"march":2237,"came":2238,"small":2239,"general":2240,"town":2241,"june":2242,"##on":2243,"line":2244,"based":2245,"something":2246,"##k":2247,"september":2248,"thought":2249,"looked":2250,"along":2251,"international":2252,"2011":2253,"air":2254,"july":2255,"club":2256,"went":2257,"january":2258,"october":2259,"our":2260,"august":2261,"april":2262,"york":2263,"12":2264,"few":2265,"2012":2266,"2008":2267,"east":2268,"show":2269,"member":2270,"college":2271,"2009":2272,"father":2273,"public":2274,"##us":2275,"come":2276,"men":2277,"five":2278,"set":2279,"station":2280,"church":2281,"##c":2282,"next":2283,"former":2284,"november":2285,"room":2286,"party":2287,"located":2288,"december":2289,"2013":2290,"age":2291,"got":2292,"2007":2293,"##g":2294,"system":2295,"let":2296,"love":2297,"2006":2298,"though":2299,"every":2300,"2014":2301,"look":2302,"song":2303,"water":2304,"century":2305,"without":2306,"body":2307,"black":2308,"night":2309,"within":2310,"great":2311,"women":2312,"single":2313,"ve":2314,"building":2315,"large":2316,"population":2317,"river":2318,"named":2319,"band":2320,"white":2321,"started":2322,"##an":2323,"once":2324,"15":2325,"20":2326,"should":2327,"18":2328,"2015":2329,"service":2330,"top":2331,"built":2332,"british":2333,"open":2334,"death":2335,"king":2336,"moved":2337,"local":2338,"times":2339,"children":2340,"february":2341,"book":2342,"why":2343,"11":2344,"door":2345,"need":2346,"president":2347,"order":2348,"final":2349,"road":2350,"wasn":2351,"although":2352,"due":2353,"major":2354,"died":2355,"village":2356,"third":2357,"knew":2358,"2016":2359,"asked":2360,"turned":2361,"st":2362,"wanted":2363,"say":2364,"##p":2365,"together":2366,"received":2367,"main":2368,"son":2369,"served":2370,"different":2371,"##en":2372,"behind":2373,"himself":2374,"felt":2375,"members":2376,"power":2377,"football":2378,"law":2379,"voice":2380,"play":2381,"##in":2382,"near":2383,"park":2384,"history":2385,"30":2386,"having":2387,"2005":2388,"16":2389,"##man":2390,"saw":2391,"mother":2392,"##al":2393,"army":2394,"point":2395,"front":2396,"help":2397,"english":2398,"street":2399,"art":2400,"late":2401,"hands":2402,"games":2403,"award":2404,"##ia":2405,"young":2406,"14":2407,"put":2408,"published":2409,"country":2410,"division":2411,"across":2412,"told":2413,"13":2414,"often":2415,"ever":2416,"french":2417,"london":2418,"center":2419,"six":2420,"red":2421,"2017":2422,"led":2423,"days":2424,"include":2425,"light":2426,"25":2427,"find":2428,"tell":2429,"among":2430,"species":2431,"really":2432,"according":2433,"central":2434,"half":2435,"2004":2436,"form":2437,"original":2438,"gave":2439,"office":2440,"making":2441,"enough":2442,"lost":2443,"full":2444,"opened":2445,"must":2446,"included":2447,"live":2448,"given":2449,"german":2450,"player":2451,"run":2452,"business":2453,"woman":2454,"community":2455,"cup":2456,"might":2457,"million":2458,"land":2459,"2000":2460,"court":2461,"development":2462,"17":2463,"short":2464,"round":2465,"ii":2466,"km":2467,"seen":2468,"class":2469,"story":2470,"always":2471,"become":2472,"sure":2473,"research":2474,"almost":2475,"director":2476,"council":2477,"la":2478,"##2":2479,"career":2480,"things":2481,"using":2482,"island":2483,"##z":2484,"couldn":2485,"car":2486,"##is":2487,"24":2488,"close":2489,"force":2490,"##1":2491,"better":2492,"free":2493,"support":2494,"control":2495,"field":2496,"students":2497,"2003":2498,"education":2499,"married":2500,"##b":2501,"nothing":2502,"worked":2503,"others":2504,"record":2505,"big":2506,"inside":2507,"level":2508,"anything":2509,"continued":2510,"give":2511,"james":2512,"##3":2513,"military":2514,"established":2515,"non":2516,"returned":2517,"feel":2518,"does":2519,"title":2520,"written":2521,"thing":2522,"feet":2523,"william":2524,"far":2525,"co":2526,"association":2527,"hard":2528,"already":2529,"2002":2530,"##ra":2531,"championship":2532,"human":2533,"western":2534,"100":2535,"##na":2536,"department":2537,"hall":2538,"role":2539,"various":2540,"production":2541,"21":2542,"19":2543,"heart":2544,"2001":2545,"living":2546,"fire":2547,"version":2548,"##ers":2549,"##f":2550,"television":2551,"royal":2552,"##4":2553,"produced":2554,"working":2555,"act":2556,"case":2557,"society":2558,"region":2559,"present":2560,"radio":2561,"period":2562,"looking":2563,"least":2564,"total":2565,"keep":2566,"england":2567,"wife":2568,"program":2569,"per":2570,"brother":2571,"mind":2572,"special":2573,"22":2574,"##le":2575,"am":2576,"works":2577,"soon":2578,"##6":2579,"political":2580,"george":2581,"services":2582,"taken":2583,"created":2584,"##7":2585,"further":2586,"able":2587,"reached":2588,"david":2589,"union":2590,"joined":2591,"upon":2592,"done":2593,"important":2594,"social":2595,"information":2596,"either":2597,"##ic":2598,"##x":2599,"appeared":2600,"position":2601,"ground":2602,"lead":2603,"rock":2604,"dark":2605,"election":2606,"23":2607,"board":2608,"france":2609,"hair":2610,"course":2611,"arms":2612,"site":2613,"police":2614,"girl":2615,"instead":2616,"real":2617,"sound":2618,"##v":2619,"words":2620,"moment":2621,"##te":2622,"someone":2623,"##8":2624,"summer":2625,"project":2626,"announced":2627,"san":2628,"less":2629,"wrote":2630,"past":2631,"followed":2632,"##5":2633,"blue":2634,"founded":2635,"al":2636,"finally":2637,"india":2638,"taking":2639,"records":2640,"america":2641,"##ne":2642,"1999":2643,"design":2644,"considered":2645,"northern":2646,"god":2647,"stop":2648,"battle":2649,"toward":2650,"european":2651,"outside":2652,"described":2653,"track":2654,"today":2655,"playing":2656,"language":2657,"28":2658,"call":2659,"26":2660,"heard":2661,"professional":2662,"low":2663,"australia":2664,"miles":2665,"california":2666,"win":2667,"yet":2668,"green":2669,"##ie":2670,"trying":2671,"blood":2672,"##ton":2673,"southern":2674,"science":2675,"maybe":2676,"everything":2677,"match":2678,"square":2679,"27":2680,"mouth":2681,"video":2682,"race":2683,"recorded":2684,"leave":2685,"above":2686,"##9":2687,"daughter":2688,"points":2689,"space":2690,"1998":2691,"museum":2692,"change":2693,"middle":2694,"common":2695,"##0":2696,"move":2697,"tv":2698,"post":2699,"##ta":2700,"lake":2701,"seven":2702,"tried":2703,"elected":2704,"closed":2705,"ten":2706,"paul":2707,"minister":2708,"##th":2709,"months":2710,"start":2711,"chief":2712,"return":2713,"canada":2714,"person":2715,"sea":2716,"release":2717,"similar":2718,"modern":2719,"brought":2720,"rest":2721,"hit":2722,"formed":2723,"mr":2724,"##la":2725,"1997":2726,"floor":2727,"event":2728,"doing":2729,"thomas":2730,"1996":2731,"robert":2732,"care":2733,"killed":2734,"training":2735,"star":2736,"week":2737,"needed":2738,"turn":2739,"finished":2740,"railway":2741,"rather":2742,"news":2743,"health":2744,"sent":2745,"example":2746,"ran":2747,"term":2748,"michael":2749,"coming":2750,"currently":2751,"yes":2752,"forces":2753,"despite":2754,"gold":2755,"areas":2756,"50":2757,"stage":2758,"fact":2759,"29":2760,"dead":2761,"says":2762,"popular":2763,"2018":2764,"originally":2765,"germany":2766,"probably":2767,"developed":2768,"result":2769,"pulled":2770,"friend":2771,"stood":2772,"money":2773,"running":2774,"mi":2775,"signed":2776,"word":2777,"songs":2778,"child":2779,"eventually":2780,"met":2781,"tour":2782,"average":2783,"teams":2784,"minutes":2785,"festival":2786,"current":2787,"deep":2788,"kind":2789,"1995":2790,"decided":2791,"usually":2792,"eastern":2793,"seemed":2794,"##ness":2795,"episode":2796,"bed":2797,"added":2798,"table":2799,"indian":2800,"private":2801,"charles":2802,"route":2803,"available":2804,"idea":2805,"throughout":2806,"centre":2807,"addition":2808,"appointed":2809,"style":2810,"1994":2811,"books":2812,"eight":2813,"construction":2814,"press":2815,"mean":2816,"wall":2817,"friends":2818,"remained":2819,"schools":2820,"study":2821,"##ch":2822,"##um":2823,"institute":2824,"oh":2825,"chinese":2826,"sometimes":2827,"events":2828,"possible":2829,"1992":2830,"australian":2831,"type":2832,"brown":2833,"forward":2834,"talk":2835,"process":2836,"food":2837,"debut":2838,"seat":2839,"performance":2840,"committee":2841,"features":2842,"character":2843,"arts":2844,"herself":2845,"else":2846,"lot":2847,"strong":2848,"russian":2849,"range":2850,"hours":2851,"peter":2852,"arm":2853,"##da":2854,"morning":2855,"dr":2856,"sold":2857,"##ry":2858,"quickly":2859,"directed":2860,"1993":2861,"guitar":2862,"china":2863,"##w":2864,"31":2865,"list":2866,"##ma":2867,"performed":2868,"media":2869,"uk":2870,"players":2871,"smile":2872,"##rs":2873,"myself":2874,"40":2875,"placed":2876,"coach":2877,"province":2878,"towards":2879,"wouldn":2880,"leading":2881,"whole":2882,"boy":2883,"official":2884,"designed":2885,"grand":2886,"census":2887,"##el":2888,"europe":2889,"attack":2890,"japanese":2891,"henry":2892,"1991":2893,"##re":2894,"##os":2895,"cross":2896,"getting":2897,"alone":2898,"action":2899,"lower":2900,"network":2901,"wide":2902,"washington":2903,"japan":2904,"1990":2905,"hospital":2906,"believe":2907,"changed":2908,"sister":2909,"##ar":2910,"hold":2911,"gone":2912,"sir":2913,"hadn":2914,"ship":2915,"##ka":2916,"studies":2917,"academy":2918,"shot":2919,"rights":2920,"below":2921,"base":2922,"bad":2923,"involved":2924,"kept":2925,"largest":2926,"##ist":2927,"bank":2928,"future":2929,"especially":2930,"beginning":2931,"mark":2932,"movement":2933,"section":2934,"female":2935,"magazine":2936,"plan":2937,"professor":2938,"lord":2939,"longer":2940,"##ian":2941,"sat":2942,"walked":2943,"hill":2944,"actually":2945,"civil":2946,"energy":2947,"model":2948,"families":2949,"size":2950,"thus":2951,"aircraft":2952,"completed":2953,"includes":2954,"data":2955,"captain":2956,"##or":2957,"fight":2958,"vocals":2959,"featured":2960,"richard":2961,"bridge":2962,"fourth":2963,"1989":2964,"officer":2965,"stone":2966,"hear":2967,"##ism":2968,"means":2969,"medical":2970,"groups":2971,"management":2972,"self":2973,"lips":2974,"competition":2975,"entire":2976,"lived":2977,"technology":2978,"leaving":2979,"federal":2980,"tournament":2981,"bit":2982,"passed":2983,"hot":2984,"independent":2985,"awards":2986,"kingdom":2987,"mary":2988,"spent":2989,"fine":2990,"doesn":2991,"reported":2992,"##ling":2993,"jack":2994,"fall":2995,"raised":2996,"itself":2997,"stay":2998,"true":2999,"studio":3000,"1988":3001,"sports":3002,"replaced":3003,"paris":3004,"systems":3005,"saint":3006,"leader":3007,"theatre":3008,"whose":3009,"market":3010,"capital":3011,"parents":3012,"spanish":3013,"canadian":3014,"earth":3015,"##ity":3016,"cut":3017,"degree":3018,"writing":3019,"bay":3020,"christian":3021,"awarded":3022,"natural":3023,"higher":3024,"bill":3025,"##as":3026,"coast":3027,"provided":3028,"previous":3029,"senior":3030,"ft":3031,"valley":3032,"organization":3033,"stopped":3034,"onto":3035,"countries":3036,"parts":3037,"conference":3038,"queen":3039,"security":3040,"interest":3041,"saying":3042,"allowed":3043,"master":3044,"earlier":3045,"phone":3046,"matter":3047,"smith":3048,"winning":3049,"try":3050,"happened":3051,"moving":3052,"campaign":3053,"los":3054,"##ley":3055,"breath":3056,"nearly":3057,"mid":3058,"1987":3059,"certain":3060,"girls":3061,"date":3062,"italian":3063,"african":3064,"standing":3065,"fell":3066,"artist":3067,"##ted":3068,"shows":3069,"deal":3070,"mine":3071,"industry":3072,"1986":3073,"##ng":3074,"everyone":3075,"republic":3076,"provide":3077,"collection":3078,"library":3079,"student":3080,"##ville":3081,"primary":3082,"owned":3083,"older":3084,"via":3085,"heavy":3086,"1st":3087,"makes":3088,"##able":3089,"attention":3090,"anyone":3091,"africa":3092,"##ri":3093,"stated":3094,"length":3095,"ended":3096,"fingers":3097,"command":3098,"staff":3099,"skin":3100,"foreign":3101,"opening":3102,"governor":3103,"okay":3104,"medal":3105,"kill":3106,"sun":3107,"cover":3108,"job":3109,"1985":3110,"introduced":3111,"chest":3112,"hell":3113,"feeling":3114,"##ies":3115,"success":3116,"meet":3117,"reason":3118,"standard":3119,"meeting":3120,"novel":3121,"1984":3122,"trade":3123,"source":3124,"buildings":3125,"##land":3126,"rose":3127,"guy":3128,"goal":3129,"##ur":3130,"chapter":3131,"native":3132,"husband":3133,"previously":3134,"unit":3135,"limited":3136,"entered":3137,"weeks":3138,"producer":3139,"operations":3140,"mountain":3141,"takes":3142,"covered":3143,"forced":3144,"related":3145,"roman":3146,"complete":3147,"successful":3148,"key":3149,"texas":3150,"cold":3151,"##ya":3152,"channel":3153,"1980":3154,"traditional":3155,"films":3156,"dance":3157,"clear":3158,"approximately":3159,"500":3160,"nine":3161,"van":3162,"prince":3163,"question":3164,"active":3165,"tracks":3166,"ireland":3167,"regional":3168,"silver":3169,"author":3170,"personal":3171,"sense":3172,"operation":3173,"##ine":3174,"economic":3175,"1983":3176,"holding":3177,"twenty":3178,"isbn":3179,"additional":3180,"speed":3181,"hour":3182,"edition":3183,"regular":3184,"historic":3185,"places":3186,"whom":3187,"shook":3188,"movie":3189,"km²":3190,"secretary":3191,"prior":3192,"report":3193,"chicago":3194,"read":3195,"foundation":3196,"view":3197,"engine":3198,"scored":3199,"1982":3200,"units":3201,"ask":3202,"airport":3203,"property":3204,"ready":3205,"immediately":3206,"lady":3207,"month":3208,"listed":3209,"contract":3210,"##de":3211,"manager":3212,"themselves":3213,"lines":3214,"##ki":3215,"navy":3216,"writer":3217,"meant":3218,"##ts":3219,"runs":3220,"##ro":3221,"practice":3222,"championships":3223,"singer":3224,"glass":3225,"commission":3226,"required":3227,"forest":3228,"starting":3229,"culture":3230,"generally":3231,"giving":3232,"access":3233,"attended":3234,"test":3235,"couple":3236,"stand":3237,"catholic":3238,"martin":3239,"caught":3240,"executive":3241,"##less":3242,"eye":3243,"##ey":3244,"thinking":3245,"chair":3246,"quite":3247,"shoulder":3248,"1979":3249,"hope":3250,"decision":3251,"plays":3252,"defeated":3253,"municipality":3254,"whether":3255,"structure":3256,"offered":3257,"slowly":3258,"pain":3259,"ice":3260,"direction":3261,"##ion":3262,"paper":3263,"mission":3264,"1981":3265,"mostly":3266,"200":3267,"noted":3268,"individual":3269,"managed":3270,"nature":3271,"lives":3272,"plant":3273,"##ha":3274,"helped":3275,"except":3276,"studied":3277,"computer":3278,"figure":3279,"relationship":3280,"issue":3281,"significant":3282,"loss":3283,"die":3284,"smiled":3285,"gun":3286,"ago":3287,"highest":3288,"1972":3289,"##am":3290,"male":3291,"bring":3292,"goals":3293,"mexico":3294,"problem":3295,"distance":3296,"commercial":3297,"completely":3298,"location":3299,"annual":3300,"famous":3301,"drive":3302,"1976":3303,"neck":3304,"1978":3305,"surface":3306,"caused":3307,"italy":3308,"understand":3309,"greek":3310,"highway":3311,"wrong":3312,"hotel":3313,"comes":3314,"appearance":3315,"joseph":3316,"double":3317,"issues":3318,"musical":3319,"companies":3320,"castle":3321,"income":3322,"review":3323,"assembly":3324,"bass":3325,"initially":3326,"parliament":3327,"artists":3328,"experience":3329,"1974":3330,"particular":3331,"walk":3332,"foot":3333,"engineering":3334,"talking":3335,"window":3336,"dropped":3337,"##ter":3338,"miss":3339,"baby":3340,"boys":3341,"break":3342,"1975":3343,"stars":3344,"edge":3345,"remember":3346,"policy":3347,"carried":3348,"train":3349,"stadium":3350,"bar":3351,"sex":3352,"angeles":3353,"evidence":3354,"##ge":3355,"becoming":3356,"assistant":3357,"soviet":3358,"1977":3359,"upper":3360,"step":3361,"wing":3362,"1970":3363,"youth":3364,"financial":3365,"reach":3366,"##ll":3367,"actor":3368,"numerous":3369,"##se":3370,"##st":3371,"nodded":3372,"arrived":3373,"##ation":3374,"minute":3375,"##nt":3376,"believed":3377,"sorry":3378,"complex":3379,"beautiful":3380,"victory":3381,"associated":3382,"temple":3383,"1968":3384,"1973":3385,"chance":3386,"perhaps":3387,"metal":3388,"##son":3389,"1945":3390,"bishop":3391,"##et":3392,"lee":3393,"launched":3394,"particularly":3395,"tree":3396,"le":3397,"retired":3398,"subject":3399,"prize":3400,"contains":3401,"yeah":3402,"theory":3403,"empire":3404,"##ce":3405,"suddenly":3406,"waiting":3407,"trust":3408,"recording":3409,"##to":3410,"happy":3411,"terms":3412,"camp":3413,"champion":3414,"1971":3415,"religious":3416,"pass":3417,"zealand":3418,"names":3419,"2nd":3420,"port":3421,"ancient":3422,"tom":3423,"corner":3424,"represented":3425,"watch":3426,"legal":3427,"anti":3428,"justice":3429,"cause":3430,"watched":3431,"brothers":3432,"45":3433,"material":3434,"changes":3435,"simply":3436,"response":3437,"louis":3438,"fast":3439,"##ting":3440,"answer":3441,"60":3442,"historical":3443,"1969":3444,"stories":3445,"straight":3446,"create":3447,"feature":3448,"increased":3449,"rate":3450,"administration":3451,"virginia":3452,"el":3453,"activities":3454,"cultural":3455,"overall":3456,"winner":3457,"programs":3458,"basketball":3459,"legs":3460,"guard":3461,"beyond":3462,"cast":3463,"doctor":3464,"mm":3465,"flight":3466,"results":3467,"remains":3468,"cost":3469,"effect":3470,"winter":3471,"##ble":3472,"larger":3473,"islands":3474,"problems":3475,"chairman":3476,"grew":3477,"commander":3478,"isn":3479,"1967":3480,"pay":3481,"failed":3482,"selected":3483,"hurt":3484,"fort":3485,"box":3486,"regiment":3487,"majority":3488,"journal":3489,"35":3490,"edward":3491,"plans":3492,"##ke":3493,"##ni":3494,"shown":3495,"pretty":3496,"irish":3497,"characters":3498,"directly":3499,"scene":3500,"likely":3501,"operated":3502,"allow":3503,"spring":3504,"##j":3505,"junior":3506,"matches":3507,"looks":3508,"mike":3509,"houses":3510,"fellow":3511,"##tion":3512,"beach":3513,"marriage":3514,"##ham":3515,"##ive":3516,"rules":3517,"oil":3518,"65":3519,"florida":3520,"expected":3521,"nearby":3522,"congress":3523,"sam":3524,"peace":3525,"recent":3526,"iii":3527,"wait":3528,"subsequently":3529,"cell":3530,"##do":3531,"variety":3532,"serving":3533,"agreed":3534,"please":3535,"poor":3536,"joe":3537,"pacific":3538,"attempt":3539,"wood":3540,"democratic":3541,"piece":3542,"prime":3543,"##ca":3544,"rural":3545,"mile":3546,"touch":3547,"appears":3548,"township":3549,"1964":3550,"1966":3551,"soldiers":3552,"##men":3553,"##ized":3554,"1965":3555,"pennsylvania":3556,"closer":3557,"fighting":3558,"claimed":3559,"score":3560,"jones":3561,"physical":3562,"editor":3563,"##ous":3564,"filled":3565,"genus":3566,"specific":3567,"sitting":3568,"super":3569,"mom":3570,"##va":3571,"therefore":3572,"supported":3573,"status":3574,"fear":3575,"cases":3576,"store":3577,"meaning":3578,"wales":3579,"minor":3580,"spain":3581,"tower":3582,"focus":3583,"vice":3584,"frank":3585,"follow":3586,"parish":3587,"separate":3588,"golden":3589,"horse":3590,"fifth":3591,"remaining":3592,"branch":3593,"32":3594,"presented":3595,"stared":3596,"##id":3597,"uses":3598,"secret":3599,"forms":3600,"##co":3601,"baseball":3602,"exactly":3603,"##ck":3604,"choice":3605,"note":3606,"discovered":3607,"travel":3608,"composed":3609,"truth":3610,"russia":3611,"ball":3612,"color":3613,"kiss":3614,"dad":3615,"wind":3616,"continue":3617,"ring":3618,"referred":3619,"numbers":3620,"digital":3621,"greater":3622,"##ns":3623,"metres":3624,"slightly":3625,"direct":3626,"increase":3627,"1960":3628,"responsible":3629,"crew":3630,"rule":3631,"trees":3632,"troops":3633,"##no":3634,"broke":3635,"goes":3636,"individuals":3637,"hundred":3638,"weight":3639,"creek":3640,"sleep":3641,"memory":3642,"defense":3643,"provides":3644,"ordered":3645,"code":3646,"value":3647,"jewish":3648,"windows":3649,"1944":3650,"safe":3651,"judge":3652,"whatever":3653,"corps":3654,"realized":3655,"growing":3656,"pre":3657,"##ga":3658,"cities":3659,"alexander":3660,"gaze":3661,"lies":3662,"spread":3663,"scott":3664,"letter":3665,"showed":3666,"situation":3667,"mayor":3668,"transport":3669,"watching":3670,"workers":3671,"extended":3672,"##li":3673,"expression":3674,"normal":3675,"##ment":3676,"chart":3677,"multiple":3678,"border":3679,"##ba":3680,"host":3681,"##ner":3682,"daily":3683,"mrs":3684,"walls":3685,"piano":3686,"##ko":3687,"heat":3688,"cannot":3689,"##ate":3690,"earned":3691,"products":3692,"drama":3693,"era":3694,"authority":3695,"seasons":3696,"join":3697,"grade":3698,"##io":3699,"sign":3700,"difficult":3701,"machine":3702,"1963":3703,"territory":3704,"mainly":3705,"##wood":3706,"stations":3707,"squadron":3708,"1962":3709,"stepped":3710,"iron":3711,"19th":3712,"##led":3713,"serve":3714,"appear":3715,"sky":3716,"speak":3717,"broken":3718,"charge":3719,"knowledge":3720,"kilometres":3721,"removed":3722,"ships":3723,"article":3724,"campus":3725,"simple":3726,"##ty":3727,"pushed":3728,"britain":3729,"##ve":3730,"leaves":3731,"recently":3732,"cd":3733,"soft":3734,"boston":3735,"latter":3736,"easy":3737,"acquired":3738,"poland":3739,"##sa":3740,"quality":3741,"officers":3742,"presence":3743,"planned":3744,"nations":3745,"mass":3746,"broadcast":3747,"jean":3748,"share":3749,"image":3750,"influence":3751,"wild":3752,"offer":3753,"emperor":3754,"electric":3755,"reading":3756,"headed":3757,"ability":3758,"promoted":3759,"yellow":3760,"ministry":3761,"1942":3762,"throat":3763,"smaller":3764,"politician":3765,"##by":3766,"latin":3767,"spoke":3768,"cars":3769,"williams":3770,"males":3771,"lack":3772,"pop":3773,"80":3774,"##ier":3775,"acting":3776,"seeing":3777,"consists":3778,"##ti":3779,"estate":3780,"1961":3781,"pressure":3782,"johnson":3783,"newspaper":3784,"jr":3785,"chris":3786,"olympics":3787,"online":3788,"conditions":3789,"beat":3790,"elements":3791,"walking":3792,"vote":3793,"##field":3794,"needs":3795,"carolina":3796,"text":3797,"featuring":3798,"global":3799,"block":3800,"shirt":3801,"levels":3802,"francisco":3803,"purpose":3804,"females":3805,"et":3806,"dutch":3807,"duke":3808,"ahead":3809,"gas":3810,"twice":3811,"safety":3812,"serious":3813,"turning":3814,"highly":3815,"lieutenant":3816,"firm":3817,"maria":3818,"amount":3819,"mixed":3820,"daniel":3821,"proposed":3822,"perfect":3823,"agreement":3824,"affairs":3825,"3rd":3826,"seconds":3827,"contemporary":3828,"paid":3829,"1943":3830,"prison":3831,"save":3832,"kitchen":3833,"label":3834,"administrative":3835,"intended":3836,"constructed":3837,"academic":3838,"nice":3839,"teacher":3840,"races":3841,"1956":3842,"formerly":3843,"corporation":3844,"ben":3845,"nation":3846,"issued":3847,"shut":3848,"1958":3849,"drums":3850,"housing":3851,"victoria":3852,"seems":3853,"opera":3854,"1959":3855,"graduated":3856,"function":3857,"von":3858,"mentioned":3859,"picked":3860,"build":3861,"recognized":3862,"shortly":3863,"protection":3864,"picture":3865,"notable":3866,"exchange":3867,"elections":3868,"1980s":3869,"loved":3870,"percent":3871,"racing":3872,"fish":3873,"elizabeth":3874,"garden":3875,"volume":3876,"hockey":3877,"1941":3878,"beside":3879,"settled":3880,"##ford":3881,"1940":3882,"competed":3883,"replied":3884,"drew":3885,"1948":3886,"actress":3887,"marine":3888,"scotland":3889,"steel":3890,"glanced":3891,"farm":3892,"steve":3893,"1957":3894,"risk":3895,"tonight":3896,"positive":3897,"magic":3898,"singles":3899,"effects":3900,"gray":3901,"screen":3902,"dog":3903,"##ja":3904,"residents":3905,"bus":3906,"sides":3907,"none":3908,"secondary":3909,"literature":3910,"polish":3911,"destroyed":3912,"flying":3913,"founder":3914,"households":3915,"1939":3916,"lay":3917,"reserve":3918,"usa":3919,"gallery":3920,"##ler":3921,"1946":3922,"industrial":3923,"younger":3924,"approach":3925,"appearances":3926,"urban":3927,"ones":3928,"1950":3929,"finish":3930,"avenue":3931,"powerful":3932,"fully":3933,"growth":3934,"page":3935,"honor":3936,"jersey":3937,"projects":3938,"advanced":3939,"revealed":3940,"basic":3941,"90":3942,"infantry":3943,"pair":3944,"equipment":3945,"visit":3946,"33":3947,"evening":3948,"search":3949,"grant":3950,"effort":3951,"solo":3952,"treatment":3953,"buried":3954,"republican":3955,"primarily":3956,"bottom":3957,"owner":3958,"1970s":3959,"israel":3960,"gives":3961,"jim":3962,"dream":3963,"bob":3964,"remain":3965,"spot":3966,"70":3967,"notes":3968,"produce":3969,"champions":3970,"contact":3971,"ed":3972,"soul":3973,"accepted":3974,"ways":3975,"del":3976,"##ally":3977,"losing":3978,"split":3979,"price":3980,"capacity":3981,"basis":3982,"trial":3983,"questions":3984,"##ina":3985,"1955":3986,"20th":3987,"guess":3988,"officially":3989,"memorial":3990,"naval":3991,"initial":3992,"##ization":3993,"whispered":3994,"median":3995,"engineer":3996,"##ful":3997,"sydney":3998,"##go":3999,"columbia":4000,"strength":4001,"300":4002,"1952":4003,"tears":4004,"senate":4005,"00":4006,"card":4007,"asian":4008,"agent":4009,"1947":4010,"software":4011,"44":4012,"draw":4013,"warm":4014,"supposed":4015,"com":4016,"pro":4017,"##il":4018,"transferred":4019,"leaned":4020,"##at":4021,"candidate":4022,"escape":4023,"mountains":4024,"asia":4025,"potential":4026,"activity":4027,"entertainment":4028,"seem":4029,"traffic":4030,"jackson":4031,"murder":4032,"36":4033,"slow":4034,"product":4035,"orchestra":4036,"haven":4037,"agency":4038,"bbc":4039,"taught":4040,"website":4041,"comedy":4042,"unable":4043,"storm":4044,"planning":4045,"albums":4046,"rugby":4047,"environment":4048,"scientific":4049,"grabbed":4050,"protect":4051,"##hi":4052,"boat":4053,"typically":4054,"1954":4055,"1953":4056,"damage":4057,"principal":4058,"divided":4059,"dedicated":4060,"mount":4061,"ohio":4062,"##berg":4063,"pick":4064,"fought":4065,"driver":4066,"##der":4067,"empty":4068,"shoulders":4069,"sort":4070,"thank":4071,"berlin":4072,"prominent":4073,"account":4074,"freedom":4075,"necessary":4076,"efforts":4077,"alex":4078,"headquarters":4079,"follows":4080,"alongside":4081,"des":4082,"simon":4083,"andrew":4084,"suggested":4085,"operating":4086,"learning":4087,"steps":4088,"1949":4089,"sweet":4090,"technical":4091,"begin":4092,"easily":4093,"34":4094,"teeth":4095,"speaking":4096,"settlement":4097,"scale":4098,"##sh":4099,"renamed":4100,"ray":4101,"max":4102,"enemy":4103,"semi":4104,"joint":4105,"compared":4106,"##rd":4107,"scottish":4108,"leadership":4109,"analysis":4110,"offers":4111,"georgia":4112,"pieces":4113,"captured":4114,"animal":4115,"deputy":4116,"guest":4117,"organized":4118,"##lin":4119,"tony":4120,"combined":4121,"method":4122,"challenge":4123,"1960s":4124,"huge":4125,"wants":4126,"battalion":4127,"sons":4128,"rise":4129,"crime":4130,"types":4131,"facilities":4132,"telling":4133,"path":4134,"1951":4135,"platform":4136,"sit":4137,"1990s":4138,"##lo":4139,"tells":4140,"assigned":4141,"rich":4142,"pull":4143,"##ot":4144,"commonly":4145,"alive":4146,"##za":4147,"letters":4148,"concept":4149,"conducted":4150,"wearing":4151,"happen":4152,"bought":4153,"becomes":4154,"holy":4155,"gets":4156,"ocean":4157,"defeat":4158,"languages":4159,"purchased":4160,"coffee":4161,"occurred":4162,"titled":4163,"##q":4164,"declared":4165,"applied":4166,"sciences":4167,"concert":4168,"sounds":4169,"jazz":4170,"brain":4171,"##me":4172,"painting":4173,"fleet":4174,"tax":4175,"nick":4176,"##ius":4177,"michigan":4178,"count":4179,"animals":4180,"leaders":4181,"episodes":4182,"##line":4183,"content":4184,"##den":4185,"birth":4186,"##it":4187,"clubs":4188,"64":4189,"palace":4190,"critical":4191,"refused":4192,"fair":4193,"leg":4194,"laughed":4195,"returning":4196,"surrounding":4197,"participated":4198,"formation":4199,"lifted":4200,"pointed":4201,"connected":4202,"rome":4203,"medicine":4204,"laid":4205,"taylor":4206,"santa":4207,"powers":4208,"adam":4209,"tall":4210,"shared":4211,"focused":4212,"knowing":4213,"yards":4214,"entrance":4215,"falls":4216,"##wa":4217,"calling":4218,"##ad":4219,"sources":4220,"chosen":4221,"beneath":4222,"resources":4223,"yard":4224,"##ite":4225,"nominated":4226,"silence":4227,"zone":4228,"defined":4229,"##que":4230,"gained":4231,"thirty":4232,"38":4233,"bodies":4234,"moon":4235,"##ard":4236,"adopted":4237,"christmas":4238,"widely":4239,"register":4240,"apart":4241,"iran":4242,"premier":4243,"serves":4244,"du":4245,"unknown":4246,"parties":4247,"##les":4248,"generation":4249,"##ff":4250,"continues":4251,"quick":4252,"fields":4253,"brigade":4254,"quiet":4255,"teaching":4256,"clothes":4257,"impact":4258,"weapons":4259,"partner":4260,"flat":4261,"theater":4262,"supreme":4263,"1938":4264,"37":4265,"relations":4266,"##tor":4267,"plants":4268,"suffered":4269,"1936":4270,"wilson":4271,"kids":4272,"begins":4273,"##age":4274,"1918":4275,"seats":4276,"armed":4277,"internet":4278,"models":4279,"worth":4280,"laws":4281,"400":4282,"communities":4283,"classes":4284,"background":4285,"knows":4286,"thanks":4287,"quarter":4288,"reaching":4289,"humans":4290,"carry":4291,"killing":4292,"format":4293,"kong":4294,"hong":4295,"setting":4296,"75":4297,"architecture":4298,"disease":4299,"railroad":4300,"inc":4301,"possibly":4302,"wish":4303,"arthur":4304,"thoughts":4305,"harry":4306,"doors":4307,"density":4308,"##di":4309,"crowd":4310,"illinois":4311,"stomach":4312,"tone":4313,"unique":4314,"reports":4315,"anyway":4316,"##ir":4317,"liberal":4318,"der":4319,"vehicle":4320,"thick":4321,"dry":4322,"drug":4323,"faced":4324,"largely":4325,"facility":4326,"theme":4327,"holds":4328,"creation":4329,"strange":4330,"colonel":4331,"##mi":4332,"revolution":4333,"bell":4334,"politics":4335,"turns":4336,"silent":4337,"rail":4338,"relief":4339,"independence":4340,"combat":4341,"shape":4342,"write":4343,"determined":4344,"sales":4345,"learned":4346,"4th":4347,"finger":4348,"oxford":4349,"providing":4350,"1937":4351,"heritage":4352,"fiction":4353,"situated":4354,"designated":4355,"allowing":4356,"distribution":4357,"hosted":4358,"##est":4359,"sight":4360,"interview":4361,"estimated":4362,"reduced":4363,"##ria":4364,"toronto":4365,"footballer":4366,"keeping":4367,"guys":4368,"damn":4369,"claim":4370,"motion":4371,"sport":4372,"sixth":4373,"stayed":4374,"##ze":4375,"en":4376,"rear":4377,"receive":4378,"handed":4379,"twelve":4380,"dress":4381,"audience":4382,"granted":4383,"brazil":4384,"##well":4385,"spirit":4386,"##ated":4387,"noticed":4388,"etc":4389,"olympic":4390,"representative":4391,"eric":4392,"tight":4393,"trouble":4394,"reviews":4395,"drink":4396,"vampire":4397,"missing":4398,"roles":4399,"ranked":4400,"newly":4401,"household":4402,"finals":4403,"wave":4404,"critics":4405,"##ee":4406,"phase":4407,"massachusetts":4408,"pilot":4409,"unlike":4410,"philadelphia":4411,"bright":4412,"guns":4413,"crown":4414,"organizations":4415,"roof":4416,"42":4417,"respectively":4418,"clearly":4419,"tongue":4420,"marked":4421,"circle":4422,"fox":4423,"korea":4424,"bronze":4425,"brian":4426,"expanded":4427,"sexual":4428,"supply":4429,"yourself":4430,"inspired":4431,"labour":4432,"fc":4433,"##ah":4434,"reference":4435,"vision":4436,"draft":4437,"connection":4438,"brand":4439,"reasons":4440,"1935":4441,"classic":4442,"driving":4443,"trip":4444,"jesus":4445,"cells":4446,"entry":4447,"1920":4448,"neither":4449,"trail":4450,"claims":4451,"atlantic":4452,"orders":4453,"labor":4454,"nose":4455,"afraid":4456,"identified":4457,"intelligence":4458,"calls":4459,"cancer":4460,"attacked":4461,"passing":4462,"stephen":4463,"positions":4464,"imperial":4465,"grey":4466,"jason":4467,"39":4468,"sunday":4469,"48":4470,"swedish":4471,"avoid":4472,"extra":4473,"uncle":4474,"message":4475,"covers":4476,"allows":4477,"surprise":4478,"materials":4479,"fame":4480,"hunter":4481,"##ji":4482,"1930":4483,"citizens":4484,"figures":4485,"davis":4486,"environmental":4487,"confirmed":4488,"shit":4489,"titles":4490,"di":4491,"performing":4492,"difference":4493,"acts":4494,"attacks":4495,"##ov":4496,"existing":4497,"votes":4498,"opportunity":4499,"nor":4500,"shop":4501,"entirely":4502,"trains":4503,"opposite":4504,"pakistan":4505,"##pa":4506,"develop":4507,"resulted":4508,"representatives":4509,"actions":4510,"reality":4511,"pressed":4512,"##ish":4513,"barely":4514,"wine":4515,"conversation":4516,"faculty":4517,"northwest":4518,"ends":4519,"documentary":4520,"nuclear":4521,"stock":4522,"grace":4523,"sets":4524,"eat":4525,"alternative":4526,"##ps":4527,"bag":4528,"resulting":4529,"creating":4530,"surprised":4531,"cemetery":4532,"1919":4533,"drop":4534,"finding":4535,"sarah":4536,"cricket":4537,"streets":4538,"tradition":4539,"ride":4540,"1933":4541,"exhibition":4542,"target":4543,"ear":4544,"explained":4545,"rain":4546,"composer":4547,"injury":4548,"apartment":4549,"municipal":4550,"educational":4551,"occupied":4552,"netherlands":4553,"clean":4554,"billion":4555,"constitution":4556,"learn":4557,"1914":4558,"maximum":4559,"classical":4560,"francis":4561,"lose":4562,"opposition":4563,"jose":4564,"ontario":4565,"bear":4566,"core":4567,"hills":4568,"rolled":4569,"ending":4570,"drawn":4571,"permanent":4572,"fun":4573,"##tes":4574,"##lla":4575,"lewis":4576,"sites":4577,"chamber":4578,"ryan":4579,"##way":4580,"scoring":4581,"height":4582,"1934":4583,"##house":4584,"lyrics":4585,"staring":4586,"55":4587,"officials":4588,"1917":4589,"snow":4590,"oldest":4591,"##tic":4592,"orange":4593,"##ger":4594,"qualified":4595,"interior":4596,"apparently":4597,"succeeded":4598,"thousand":4599,"dinner":4600,"lights":4601,"existence":4602,"fans":4603,"heavily":4604,"41":4605,"greatest":4606,"conservative":4607,"send":4608,"bowl":4609,"plus":4610,"enter":4611,"catch":4612,"##un":4613,"economy":4614,"duty":4615,"1929":4616,"speech":4617,"authorities":4618,"princess":4619,"performances":4620,"versions":4621,"shall":4622,"graduate":4623,"pictures":4624,"effective":4625,"remembered":4626,"poetry":4627,"desk":4628,"crossed":4629,"starring":4630,"starts":4631,"passenger":4632,"sharp":4633,"##ant":4634,"acres":4635,"ass":4636,"weather":4637,"falling":4638,"rank":4639,"fund":4640,"supporting":4641,"check":4642,"adult":4643,"publishing":4644,"heads":4645,"cm":4646,"southeast":4647,"lane":4648,"##burg":4649,"application":4650,"bc":4651,"##ura":4652,"les":4653,"condition":4654,"transfer":4655,"prevent":4656,"display":4657,"ex":4658,"regions":4659,"earl":4660,"federation":4661,"cool":4662,"relatively":4663,"answered":4664,"besides":4665,"1928":4666,"obtained":4667,"portion":4668,"##town":4669,"mix":4670,"##ding":4671,"reaction":4672,"liked":4673,"dean":4674,"express":4675,"peak":4676,"1932":4677,"##tte":4678,"counter":4679,"religion":4680,"chain":4681,"rare":4682,"miller":4683,"convention":4684,"aid":4685,"lie":4686,"vehicles":4687,"mobile":4688,"perform":4689,"squad":4690,"wonder":4691,"lying":4692,"crazy":4693,"sword":4694,"##ping":4695,"attempted":4696,"centuries":4697,"weren":4698,"philosophy":4699,"category":4700,"##ize":4701,"anna":4702,"interested":4703,"47":4704,"sweden":4705,"wolf":4706,"frequently":4707,"abandoned":4708,"kg":4709,"literary":4710,"alliance":4711,"task":4712,"entitled":4713,"##ay":4714,"threw":4715,"promotion":4716,"factory":4717,"tiny":4718,"soccer":4719,"visited":4720,"matt":4721,"fm":4722,"achieved":4723,"52":4724,"defence":4725,"internal":4726,"persian":4727,"43":4728,"methods":4729,"##ging":4730,"arrested":4731,"otherwise":4732,"cambridge":4733,"programming":4734,"villages":4735,"elementary":4736,"districts":4737,"rooms":4738,"criminal":4739,"conflict":4740,"worry":4741,"trained":4742,"1931":4743,"attempts":4744,"waited":4745,"signal":4746,"bird":4747,"truck":4748,"subsequent":4749,"programme":4750,"##ol":4751,"ad":4752,"49":4753,"communist":4754,"details":4755,"faith":4756,"sector":4757,"patrick":4758,"carrying":4759,"laugh":4760,"##ss":4761,"controlled":4762,"korean":4763,"showing":4764,"origin":4765,"fuel":4766,"evil":4767,"1927":4768,"##ent":4769,"brief":4770,"identity":4771,"darkness":4772,"address":4773,"pool":4774,"missed":4775,"publication":4776,"web":4777,"planet":4778,"ian":4779,"anne":4780,"wings":4781,"invited":4782,"##tt":4783,"briefly":4784,"standards":4785,"kissed":4786,"##be":4787,"ideas":4788,"climate":4789,"causing":4790,"walter":4791,"worse":4792,"albert":4793,"articles":4794,"winners":4795,"desire":4796,"aged":4797,"northeast":4798,"dangerous":4799,"gate":4800,"doubt":4801,"1922":4802,"wooden":4803,"multi":4804,"##ky":4805,"poet":4806,"rising":4807,"funding":4808,"46":4809,"communications":4810,"communication":4811,"violence":4812,"copies":4813,"prepared":4814,"ford":4815,"investigation":4816,"skills":4817,"1924":4818,"pulling":4819,"electronic":4820,"##ak":4821,"##ial":4822,"##han":4823,"containing":4824,"ultimately":4825,"offices":4826,"singing":4827,"understanding":4828,"restaurant":4829,"tomorrow":4830,"fashion":4831,"christ":4832,"ward":4833,"da":4834,"pope":4835,"stands":4836,"5th":4837,"flow":4838,"studios":4839,"aired":4840,"commissioned":4841,"contained":4842,"exist":4843,"fresh":4844,"americans":4845,"##per":4846,"wrestling":4847,"approved":4848,"kid":4849,"employed":4850,"respect":4851,"suit":4852,"1925":4853,"angel":4854,"asking":4855,"increasing":4856,"frame":4857,"angry":4858,"selling":4859,"1950s":4860,"thin":4861,"finds":4862,"##nd":4863,"temperature":4864,"statement":4865,"ali":4866,"explain":4867,"inhabitants":4868,"towns":4869,"extensive":4870,"narrow":4871,"51":4872,"jane":4873,"flowers":4874,"images":4875,"promise":4876,"somewhere":4877,"object":4878,"fly":4879,"closely":4880,"##ls":4881,"1912":4882,"bureau":4883,"cape":4884,"1926":4885,"weekly":4886,"presidential":4887,"legislative":4888,"1921":4889,"##ai":4890,"##au":4891,"launch":4892,"founding":4893,"##ny":4894,"978":4895,"##ring":4896,"artillery":4897,"strike":4898,"un":4899,"institutions":4900,"roll":4901,"writers":4902,"landing":4903,"chose":4904,"kevin":4905,"anymore":4906,"pp":4907,"##ut":4908,"attorney":4909,"fit":4910,"dan":4911,"billboard":4912,"receiving":4913,"agricultural":4914,"breaking":4915,"sought":4916,"dave":4917,"admitted":4918,"lands":4919,"mexican":4920,"##bury":4921,"charlie":4922,"specifically":4923,"hole":4924,"iv":4925,"howard":4926,"credit":4927,"moscow":4928,"roads":4929,"accident":4930,"1923":4931,"proved":4932,"wear":4933,"struck":4934,"hey":4935,"guards":4936,"stuff":4937,"slid":4938,"expansion":4939,"1915":4940,"cat":4941,"anthony":4942,"##kin":4943,"melbourne":4944,"opposed":4945,"sub":4946,"southwest":4947,"architect":4948,"failure":4949,"plane":4950,"1916":4951,"##ron":4952,"map":4953,"camera":4954,"tank":4955,"listen":4956,"regarding":4957,"wet":4958,"introduction":4959,"metropolitan":4960,"link":4961,"ep":4962,"fighter":4963,"inch":4964,"grown":4965,"gene":4966,"anger":4967,"fixed":4968,"buy":4969,"dvd":4970,"khan":4971,"domestic":4972,"worldwide":4973,"chapel":4974,"mill":4975,"functions":4976,"examples":4977,"##head":4978,"developing":4979,"1910":4980,"turkey":4981,"hits":4982,"pocket":4983,"antonio":4984,"papers":4985,"grow":4986,"unless":4987,"circuit":4988,"18th":4989,"concerned":4990,"attached":4991,"journalist":4992,"selection":4993,"journey":4994,"converted":4995,"provincial":4996,"painted":4997,"hearing":4998,"aren":4999,"bands":5000,"negative":5001,"aside":5002,"wondered":5003,"knight":5004,"lap":5005,"survey":5006,"ma":5007,"##ow":5008,"noise":5009,"billy":5010,"##ium":5011,"shooting":5012,"guide":5013,"bedroom":5014,"priest":5015,"resistance":5016,"motor":5017,"homes":5018,"sounded":5019,"giant":5020,"##mer":5021,"150":5022,"scenes":5023,"equal":5024,"comic":5025,"patients":5026,"hidden":5027,"solid":5028,"actual":5029,"bringing":5030,"afternoon":5031,"touched":5032,"funds":5033,"wedding":5034,"consisted":5035,"marie":5036,"canal":5037,"sr":5038,"kim":5039,"treaty":5040,"turkish":5041,"recognition":5042,"residence":5043,"cathedral":5044,"broad":5045,"knees":5046,"incident":5047,"shaped":5048,"fired":5049,"norwegian":5050,"handle":5051,"cheek":5052,"contest":5053,"represent":5054,"##pe":5055,"representing":5056,"beauty":5057,"##sen":5058,"birds":5059,"advantage":5060,"emergency":5061,"wrapped":5062,"drawing":5063,"notice":5064,"pink":5065,"broadcasting":5066,"##ong":5067,"somehow":5068,"bachelor":5069,"seventh":5070,"collected":5071,"registered":5072,"establishment":5073,"alan":5074,"assumed":5075,"chemical":5076,"personnel":5077,"roger":5078,"retirement":5079,"jeff":5080,"portuguese":5081,"wore":5082,"tied":5083,"device":5084,"threat":5085,"progress":5086,"advance":5087,"##ised":5088,"banks":5089,"hired":5090,"manchester":5091,"nfl":5092,"teachers":5093,"structures":5094,"forever":5095,"##bo":5096,"tennis":5097,"helping":5098,"saturday":5099,"sale":5100,"applications":5101,"junction":5102,"hip":5103,"incorporated":5104,"neighborhood":5105,"dressed":5106,"ceremony":5107,"##ds":5108,"influenced":5109,"hers":5110,"visual":5111,"stairs":5112,"decades":5113,"inner":5114,"kansas":5115,"hung":5116,"hoped":5117,"gain":5118,"scheduled":5119,"downtown":5120,"engaged":5121,"austria":5122,"clock":5123,"norway":5124,"certainly":5125,"pale":5126,"protected":5127,"1913":5128,"victor":5129,"employees":5130,"plate":5131,"putting":5132,"surrounded":5133,"##ists":5134,"finishing":5135,"blues":5136,"tropical":5137,"##ries":5138,"minnesota":5139,"consider":5140,"philippines":5141,"accept":5142,"54":5143,"retrieved":5144,"1900":5145,"concern":5146,"anderson":5147,"properties":5148,"institution":5149,"gordon":5150,"successfully":5151,"vietnam":5152,"##dy":5153,"backing":5154,"outstanding":5155,"muslim":5156,"crossing":5157,"folk":5158,"producing":5159,"usual":5160,"demand":5161,"occurs":5162,"observed":5163,"lawyer":5164,"educated":5165,"##ana":5166,"kelly":5167,"string":5168,"pleasure":5169,"budget":5170,"items":5171,"quietly":5172,"colorado":5173,"philip":5174,"typical":5175,"##worth":5176,"derived":5177,"600":5178,"survived":5179,"asks":5180,"mental":5181,"##ide":5182,"56":5183,"jake":5184,"jews":5185,"distinguished":5186,"ltd":5187,"1911":5188,"sri":5189,"extremely":5190,"53":5191,"athletic":5192,"loud":5193,"thousands":5194,"worried":5195,"shadow":5196,"transportation":5197,"horses":5198,"weapon":5199,"arena":5200,"importance":5201,"users":5202,"tim":5203,"objects":5204,"contributed":5205,"dragon":5206,"douglas":5207,"aware":5208,"senator":5209,"johnny":5210,"jordan":5211,"sisters":5212,"engines":5213,"flag":5214,"investment":5215,"samuel":5216,"shock":5217,"capable":5218,"clark":5219,"row":5220,"wheel":5221,"refers":5222,"session":5223,"familiar":5224,"biggest":5225,"wins":5226,"hate":5227,"maintained":5228,"drove":5229,"hamilton":5230,"request":5231,"expressed":5232,"injured":5233,"underground":5234,"churches":5235,"walker":5236,"wars":5237,"tunnel":5238,"passes":5239,"stupid":5240,"agriculture":5241,"softly":5242,"cabinet":5243,"regarded":5244,"joining":5245,"indiana":5246,"##ea":5247,"##ms":5248,"push":5249,"dates":5250,"spend":5251,"behavior":5252,"woods":5253,"protein":5254,"gently":5255,"chase":5256,"morgan":5257,"mention":5258,"burning":5259,"wake":5260,"combination":5261,"occur":5262,"mirror":5263,"leads":5264,"jimmy":5265,"indeed":5266,"impossible":5267,"singapore":5268,"paintings":5269,"covering":5270,"##nes":5271,"soldier":5272,"locations":5273,"attendance":5274,"sell":5275,"historian":5276,"wisconsin":5277,"invasion":5278,"argued":5279,"painter":5280,"diego":5281,"changing":5282,"egypt":5283,"##don":5284,"experienced":5285,"inches":5286,"##ku":5287,"missouri":5288,"vol":5289,"grounds":5290,"spoken":5291,"switzerland":5292,"##gan":5293,"reform":5294,"rolling":5295,"ha":5296,"forget":5297,"massive":5298,"resigned":5299,"burned":5300,"allen":5301,"tennessee":5302,"locked":5303,"values":5304,"improved":5305,"##mo":5306,"wounded":5307,"universe":5308,"sick":5309,"dating":5310,"facing":5311,"pack":5312,"purchase":5313,"user":5314,"##pur":5315,"moments":5316,"##ul":5317,"merged":5318,"anniversary":5319,"1908":5320,"coal":5321,"brick":5322,"understood":5323,"causes":5324,"dynasty":5325,"queensland":5326,"establish":5327,"stores":5328,"crisis":5329,"promote":5330,"hoping":5331,"views":5332,"cards":5333,"referee":5334,"extension":5335,"##si":5336,"raise":5337,"arizona":5338,"improve":5339,"colonial":5340,"formal":5341,"charged":5342,"##rt":5343,"palm":5344,"lucky":5345,"hide":5346,"rescue":5347,"faces":5348,"95":5349,"feelings":5350,"candidates":5351,"juan":5352,"##ell":5353,"goods":5354,"6th":5355,"courses":5356,"weekend":5357,"59":5358,"luke":5359,"cash":5360,"fallen":5361,"##om":5362,"delivered":5363,"affected":5364,"installed":5365,"carefully":5366,"tries":5367,"swiss":5368,"hollywood":5369,"costs":5370,"lincoln":5371,"responsibility":5372,"##he":5373,"shore":5374,"file":5375,"proper":5376,"normally":5377,"maryland":5378,"assistance":5379,"jump":5380,"constant":5381,"offering":5382,"friendly":5383,"waters":5384,"persons":5385,"realize":5386,"contain":5387,"trophy":5388,"800":5389,"partnership":5390,"factor":5391,"58":5392,"musicians":5393,"cry":5394,"bound":5395,"oregon":5396,"indicated":5397,"hero":5398,"houston":5399,"medium":5400,"##ure":5401,"consisting":5402,"somewhat":5403,"##ara":5404,"57":5405,"cycle":5406,"##che":5407,"beer":5408,"moore":5409,"frederick":5410,"gotten":5411,"eleven":5412,"worst":5413,"weak":5414,"approached":5415,"arranged":5416,"chin":5417,"loan":5418,"universal":5419,"bond":5420,"fifteen":5421,"pattern":5422,"disappeared":5423,"##ney":5424,"translated":5425,"##zed":5426,"lip":5427,"arab":5428,"capture":5429,"interests":5430,"insurance":5431,"##chi":5432,"shifted":5433,"cave":5434,"prix":5435,"warning":5436,"sections":5437,"courts":5438,"coat":5439,"plot":5440,"smell":5441,"feed":5442,"golf":5443,"favorite":5444,"maintain":5445,"knife":5446,"vs":5447,"voted":5448,"degrees":5449,"finance":5450,"quebec":5451,"opinion":5452,"translation":5453,"manner":5454,"ruled":5455,"operate":5456,"productions":5457,"choose":5458,"musician":5459,"discovery":5460,"confused":5461,"tired":5462,"separated":5463,"stream":5464,"techniques":5465,"committed":5466,"attend":5467,"ranking":5468,"kings":5469,"throw":5470,"passengers":5471,"measure":5472,"horror":5473,"fan":5474,"mining":5475,"sand":5476,"danger":5477,"salt":5478,"calm":5479,"decade":5480,"dam":5481,"require":5482,"runner":5483,"##ik":5484,"rush":5485,"associate":5486,"greece":5487,"##ker":5488,"rivers":5489,"consecutive":5490,"matthew":5491,"##ski":5492,"sighed":5493,"sq":5494,"documents":5495,"steam":5496,"edited":5497,"closing":5498,"tie":5499,"accused":5500,"1905":5501,"##ini":5502,"islamic":5503,"distributed":5504,"directors":5505,"organisation":5506,"bruce":5507,"7th":5508,"breathing":5509,"mad":5510,"lit":5511,"arrival":5512,"concrete":5513,"taste":5514,"08":5515,"composition":5516,"shaking":5517,"faster":5518,"amateur":5519,"adjacent":5520,"stating":5521,"1906":5522,"twin":5523,"flew":5524,"##ran":5525,"tokyo":5526,"publications":5527,"##tone":5528,"obviously":5529,"ridge":5530,"storage":5531,"1907":5532,"carl":5533,"pages":5534,"concluded":5535,"desert":5536,"driven":5537,"universities":5538,"ages":5539,"terminal":5540,"sequence":5541,"borough":5542,"250":5543,"constituency":5544,"creative":5545,"cousin":5546,"economics":5547,"dreams":5548,"margaret":5549,"notably":5550,"reduce":5551,"montreal":5552,"mode":5553,"17th":5554,"ears":5555,"saved":5556,"jan":5557,"vocal":5558,"##ica":5559,"1909":5560,"andy":5561,"##jo":5562,"riding":5563,"roughly":5564,"threatened":5565,"##ise":5566,"meters":5567,"meanwhile":5568,"landed":5569,"compete":5570,"repeated":5571,"grass":5572,"czech":5573,"regularly":5574,"charges":5575,"tea":5576,"sudden":5577,"appeal":5578,"##ung":5579,"solution":5580,"describes":5581,"pierre":5582,"classification":5583,"glad":5584,"parking":5585,"##ning":5586,"belt":5587,"physics":5588,"99":5589,"rachel":5590,"add":5591,"hungarian":5592,"participate":5593,"expedition":5594,"damaged":5595,"gift":5596,"childhood":5597,"85":5598,"fifty":5599,"##red":5600,"mathematics":5601,"jumped":5602,"letting":5603,"defensive":5604,"mph":5605,"##ux":5606,"##gh":5607,"testing":5608,"##hip":5609,"hundreds":5610,"shoot":5611,"owners":5612,"matters":5613,"smoke":5614,"israeli":5615,"kentucky":5616,"dancing":5617,"mounted":5618,"grandfather":5619,"emma":5620,"designs":5621,"profit":5622,"argentina":5623,"##gs":5624,"truly":5625,"li":5626,"lawrence":5627,"cole":5628,"begun":5629,"detroit":5630,"willing":5631,"branches":5632,"smiling":5633,"decide":5634,"miami":5635,"enjoyed":5636,"recordings":5637,"##dale":5638,"poverty":5639,"ethnic":5640,"gay":5641,"##bi":5642,"gary":5643,"arabic":5644,"09":5645,"accompanied":5646,"##one":5647,"##ons":5648,"fishing":5649,"determine":5650,"residential":5651,"acid":5652,"##ary":5653,"alice":5654,"returns":5655,"starred":5656,"mail":5657,"##ang":5658,"jonathan":5659,"strategy":5660,"##ue":5661,"net":5662,"forty":5663,"cook":5664,"businesses":5665,"equivalent":5666,"commonwealth":5667,"distinct":5668,"ill":5669,"##cy":5670,"seriously":5671,"##ors":5672,"##ped":5673,"shift":5674,"harris":5675,"replace":5676,"rio":5677,"imagine":5678,"formula":5679,"ensure":5680,"##ber":5681,"additionally":5682,"scheme":5683,"conservation":5684,"occasionally":5685,"purposes":5686,"feels":5687,"favor":5688,"##and":5689,"##ore":5690,"1930s":5691,"contrast":5692,"hanging":5693,"hunt":5694,"movies":5695,"1904":5696,"instruments":5697,"victims":5698,"danish":5699,"christopher":5700,"busy":5701,"demon":5702,"sugar":5703,"earliest":5704,"colony":5705,"studying":5706,"balance":5707,"duties":5708,"##ks":5709,"belgium":5710,"slipped":5711,"carter":5712,"05":5713,"visible":5714,"stages":5715,"iraq":5716,"fifa":5717,"##im":5718,"commune":5719,"forming":5720,"zero":5721,"07":5722,"continuing":5723,"talked":5724,"counties":5725,"legend":5726,"bathroom":5727,"option":5728,"tail":5729,"clay":5730,"daughters":5731,"afterwards":5732,"severe":5733,"jaw":5734,"visitors":5735,"##ded":5736,"devices":5737,"aviation":5738,"russell":5739,"kate":5740,"##vi":5741,"entering":5742,"subjects":5743,"##ino":5744,"temporary":5745,"swimming":5746,"forth":5747,"smooth":5748,"ghost":5749,"audio":5750,"bush":5751,"operates":5752,"rocks":5753,"movements":5754,"signs":5755,"eddie":5756,"##tz":5757,"ann":5758,"voices":5759,"honorary":5760,"06":5761,"memories":5762,"dallas":5763,"pure":5764,"measures":5765,"racial":5766,"promised":5767,"66":5768,"harvard":5769,"ceo":5770,"16th":5771,"parliamentary":5772,"indicate":5773,"benefit":5774,"flesh":5775,"dublin":5776,"louisiana":5777,"1902":5778,"1901":5779,"patient":5780,"sleeping":5781,"1903":5782,"membership":5783,"coastal":5784,"medieval":5785,"wanting":5786,"element":5787,"scholars":5788,"rice":5789,"62":5790,"limit":5791,"survive":5792,"makeup":5793,"rating":5794,"definitely":5795,"collaboration":5796,"obvious":5797,"##tan":5798,"boss":5799,"ms":5800,"baron":5801,"birthday":5802,"linked":5803,"soil":5804,"diocese":5805,"##lan":5806,"ncaa":5807,"##mann":5808,"offensive":5809,"shell":5810,"shouldn":5811,"waist":5812,"##tus":5813,"plain":5814,"ross":5815,"organ":5816,"resolution":5817,"manufacturing":5818,"adding":5819,"relative":5820,"kennedy":5821,"98":5822,"whilst":5823,"moth":5824,"marketing":5825,"gardens":5826,"crash":5827,"72":5828,"heading":5829,"partners":5830,"credited":5831,"carlos":5832,"moves":5833,"cable":5834,"##zi":5835,"marshall":5836,"##out":5837,"depending":5838,"bottle":5839,"represents":5840,"rejected":5841,"responded":5842,"existed":5843,"04":5844,"jobs":5845,"denmark":5846,"lock":5847,"##ating":5848,"treated":5849,"graham":5850,"routes":5851,"talent":5852,"commissioner":5853,"drugs":5854,"secure":5855,"tests":5856,"reign":5857,"restored":5858,"photography":5859,"##gi":5860,"contributions":5861,"oklahoma":5862,"designer":5863,"disc":5864,"grin":5865,"seattle":5866,"robin":5867,"paused":5868,"atlanta":5869,"unusual":5870,"##gate":5871,"praised":5872,"las":5873,"laughing":5874,"satellite":5875,"hungary":5876,"visiting":5877,"##sky":5878,"interesting":5879,"factors":5880,"deck":5881,"poems":5882,"norman":5883,"##water":5884,"stuck":5885,"speaker":5886,"rifle":5887,"domain":5888,"premiered":5889,"##her":5890,"dc":5891,"comics":5892,"actors":5893,"01":5894,"reputation":5895,"eliminated":5896,"8th":5897,"ceiling":5898,"prisoners":5899,"script":5900,"##nce":5901,"leather":5902,"austin":5903,"mississippi":5904,"rapidly":5905,"admiral":5906,"parallel":5907,"charlotte":5908,"guilty":5909,"tools":5910,"gender":5911,"divisions":5912,"fruit":5913,"##bs":5914,"laboratory":5915,"nelson":5916,"fantasy":5917,"marry":5918,"rapid":5919,"aunt":5920,"tribe":5921,"requirements":5922,"aspects":5923,"suicide":5924,"amongst":5925,"adams":5926,"bone":5927,"ukraine":5928,"abc":5929,"kick":5930,"sees":5931,"edinburgh":5932,"clothing":5933,"column":5934,"rough":5935,"gods":5936,"hunting":5937,"broadway":5938,"gathered":5939,"concerns":5940,"##ek":5941,"spending":5942,"ty":5943,"12th":5944,"snapped":5945,"requires":5946,"solar":5947,"bones":5948,"cavalry":5949,"##tta":5950,"iowa":5951,"drinking":5952,"waste":5953,"index":5954,"franklin":5955,"charity":5956,"thompson":5957,"stewart":5958,"tip":5959,"flash":5960,"landscape":5961,"friday":5962,"enjoy":5963,"singh":5964,"poem":5965,"listening":5966,"##back":5967,"eighth":5968,"fred":5969,"differences":5970,"adapted":5971,"bomb":5972,"ukrainian":5973,"surgery":5974,"corporate":5975,"masters":5976,"anywhere":5977,"##more":5978,"waves":5979,"odd":5980,"sean":5981,"portugal":5982,"orleans":5983,"dick":5984,"debate":5985,"kent":5986,"eating":5987,"puerto":5988,"cleared":5989,"96":5990,"expect":5991,"cinema":5992,"97":5993,"guitarist":5994,"blocks":5995,"electrical":5996,"agree":5997,"involving":5998,"depth":5999,"dying":6000,"panel":6001,"struggle":6002,"##ged":6003,"peninsula":6004,"adults":6005,"novels":6006,"emerged":6007,"vienna":6008,"metro":6009,"debuted":6010,"shoes":6011,"tamil":6012,"songwriter":6013,"meets":6014,"prove":6015,"beating":6016,"instance":6017,"heaven":6018,"scared":6019,"sending":6020,"marks":6021,"artistic":6022,"passage":6023,"superior":6024,"03":6025,"significantly":6026,"shopping":6027,"##tive":6028,"retained":6029,"##izing":6030,"malaysia":6031,"technique":6032,"cheeks":6033,"##ola":6034,"warren":6035,"maintenance":6036,"destroy":6037,"extreme":6038,"allied":6039,"120":6040,"appearing":6041,"##yn":6042,"fill":6043,"advice":6044,"alabama":6045,"qualifying":6046,"policies":6047,"cleveland":6048,"hat":6049,"battery":6050,"smart":6051,"authors":6052,"10th":6053,"soundtrack":6054,"acted":6055,"dated":6056,"lb":6057,"glance":6058,"equipped":6059,"coalition":6060,"funny":6061,"outer":6062,"ambassador":6063,"roy":6064,"possibility":6065,"couples":6066,"campbell":6067,"dna":6068,"loose":6069,"ethan":6070,"supplies":6071,"1898":6072,"gonna":6073,"88":6074,"monster":6075,"##res":6076,"shake":6077,"agents":6078,"frequency":6079,"springs":6080,"dogs":6081,"practices":6082,"61":6083,"gang":6084,"plastic":6085,"easier":6086,"suggests":6087,"gulf":6088,"blade":6089,"exposed":6090,"colors":6091,"industries":6092,"markets":6093,"pan":6094,"nervous":6095,"electoral":6096,"charts":6097,"legislation":6098,"ownership":6099,"##idae":6100,"mac":6101,"appointment":6102,"shield":6103,"copy":6104,"assault":6105,"socialist":6106,"abbey":6107,"monument":6108,"license":6109,"throne":6110,"employment":6111,"jay":6112,"93":6113,"replacement":6114,"charter":6115,"cloud":6116,"powered":6117,"suffering":6118,"accounts":6119,"oak":6120,"connecticut":6121,"strongly":6122,"wright":6123,"colour":6124,"crystal":6125,"13th":6126,"context":6127,"welsh":6128,"networks":6129,"voiced":6130,"gabriel":6131,"jerry":6132,"##cing":6133,"forehead":6134,"mp":6135,"##ens":6136,"manage":6137,"schedule":6138,"totally":6139,"remix":6140,"##ii":6141,"forests":6142,"occupation":6143,"print":6144,"nicholas":6145,"brazilian":6146,"strategic":6147,"vampires":6148,"engineers":6149,"76":6150,"roots":6151,"seek":6152,"correct":6153,"instrumental":6154,"und":6155,"alfred":6156,"backed":6157,"hop":6158,"##des":6159,"stanley":6160,"robinson":6161,"traveled":6162,"wayne":6163,"welcome":6164,"austrian":6165,"achieve":6166,"67":6167,"exit":6168,"rates":6169,"1899":6170,"strip":6171,"whereas":6172,"##cs":6173,"sing":6174,"deeply":6175,"adventure":6176,"bobby":6177,"rick":6178,"jamie":6179,"careful":6180,"components":6181,"cap":6182,"useful":6183,"personality":6184,"knee":6185,"##shi":6186,"pushing":6187,"hosts":6188,"02":6189,"protest":6190,"ca":6191,"ottoman":6192,"symphony":6193,"##sis":6194,"63":6195,"boundary":6196,"1890":6197,"processes":6198,"considering":6199,"considerable":6200,"tons":6201,"##work":6202,"##ft":6203,"##nia":6204,"cooper":6205,"trading":6206,"dear":6207,"conduct":6208,"91":6209,"illegal":6210,"apple":6211,"revolutionary":6212,"holiday":6213,"definition":6214,"harder":6215,"##van":6216,"jacob":6217,"circumstances":6218,"destruction":6219,"##lle":6220,"popularity":6221,"grip":6222,"classified":6223,"liverpool":6224,"donald":6225,"baltimore":6226,"flows":6227,"seeking":6228,"honour":6229,"approval":6230,"92":6231,"mechanical":6232,"till":6233,"happening":6234,"statue":6235,"critic":6236,"increasingly":6237,"immediate":6238,"describe":6239,"commerce":6240,"stare":6241,"##ster":6242,"indonesia":6243,"meat":6244,"rounds":6245,"boats":6246,"baker":6247,"orthodox":6248,"depression":6249,"formally":6250,"worn":6251,"naked":6252,"claire":6253,"muttered":6254,"sentence":6255,"11th":6256,"emily":6257,"document":6258,"77":6259,"criticism":6260,"wished":6261,"vessel":6262,"spiritual":6263,"bent":6264,"virgin":6265,"parker":6266,"minimum":6267,"murray":6268,"lunch":6269,"danny":6270,"printed":6271,"compilation":6272,"keyboards":6273,"false":6274,"blow":6275,"belonged":6276,"68":6277,"raising":6278,"78":6279,"cutting":6280,"##board":6281,"pittsburgh":6282,"##up":6283,"9th":6284,"shadows":6285,"81":6286,"hated":6287,"indigenous":6288,"jon":6289,"15th":6290,"barry":6291,"scholar":6292,"ah":6293,"##zer":6294,"oliver":6295,"##gy":6296,"stick":6297,"susan":6298,"meetings":6299,"attracted":6300,"spell":6301,"romantic":6302,"##ver":6303,"ye":6304,"1895":6305,"photo":6306,"demanded":6307,"customers":6308,"##ac":6309,"1896":6310,"logan":6311,"revival":6312,"keys":6313,"modified":6314,"commanded":6315,"jeans":6316,"##ious":6317,"upset":6318,"raw":6319,"phil":6320,"detective":6321,"hiding":6322,"resident":6323,"vincent":6324,"##bly":6325,"experiences":6326,"diamond":6327,"defeating":6328,"coverage":6329,"lucas":6330,"external":6331,"parks":6332,"franchise":6333,"helen":6334,"bible":6335,"successor":6336,"percussion":6337,"celebrated":6338,"il":6339,"lift":6340,"profile":6341,"clan":6342,"romania":6343,"##ied":6344,"mills":6345,"##su":6346,"nobody":6347,"achievement":6348,"shrugged":6349,"fault":6350,"1897":6351,"rhythm":6352,"initiative":6353,"breakfast":6354,"carbon":6355,"700":6356,"69":6357,"lasted":6358,"violent":6359,"74":6360,"wound":6361,"ken":6362,"killer":6363,"gradually":6364,"filmed":6365,"°c":6366,"dollars":6367,"processing":6368,"94":6369,"remove":6370,"criticized":6371,"guests":6372,"sang":6373,"chemistry":6374,"##vin":6375,"legislature":6376,"disney":6377,"##bridge":6378,"uniform":6379,"escaped":6380,"integrated":6381,"proposal":6382,"purple":6383,"denied":6384,"liquid":6385,"karl":6386,"influential":6387,"morris":6388,"nights":6389,"stones":6390,"intense":6391,"experimental":6392,"twisted":6393,"71":6394,"84":6395,"##ld":6396,"pace":6397,"nazi":6398,"mitchell":6399,"ny":6400,"blind":6401,"reporter":6402,"newspapers":6403,"14th":6404,"centers":6405,"burn":6406,"basin":6407,"forgotten":6408,"surviving":6409,"filed":6410,"collections":6411,"monastery":6412,"losses":6413,"manual":6414,"couch":6415,"description":6416,"appropriate":6417,"merely":6418,"tag":6419,"missions":6420,"sebastian":6421,"restoration":6422,"replacing":6423,"triple":6424,"73":6425,"elder":6426,"julia":6427,"warriors":6428,"benjamin":6429,"julian":6430,"convinced":6431,"stronger":6432,"amazing":6433,"declined":6434,"versus":6435,"merchant":6436,"happens":6437,"output":6438,"finland":6439,"bare":6440,"barbara":6441,"absence":6442,"ignored":6443,"dawn":6444,"injuries":6445,"##port":6446,"producers":6447,"##ram":6448,"82":6449,"luis":6450,"##ities":6451,"kw":6452,"admit":6453,"expensive":6454,"electricity":6455,"nba":6456,"exception":6457,"symbol":6458,"##ving":6459,"ladies":6460,"shower":6461,"sheriff":6462,"characteristics":6463,"##je":6464,"aimed":6465,"button":6466,"ratio":6467,"effectively":6468,"summit":6469,"angle":6470,"jury":6471,"bears":6472,"foster":6473,"vessels":6474,"pants":6475,"executed":6476,"evans":6477,"dozen":6478,"advertising":6479,"kicked":6480,"patrol":6481,"1889":6482,"competitions":6483,"lifetime":6484,"principles":6485,"athletics":6486,"##logy":6487,"birmingham":6488,"sponsored":6489,"89":6490,"rob":6491,"nomination":6492,"1893":6493,"acoustic":6494,"##sm":6495,"creature":6496,"longest":6497,"##tra":6498,"credits":6499,"harbor":6500,"dust":6501,"josh":6502,"##so":6503,"territories":6504,"milk":6505,"infrastructure":6506,"completion":6507,"thailand":6508,"indians":6509,"leon":6510,"archbishop":6511,"##sy":6512,"assist":6513,"pitch":6514,"blake":6515,"arrangement":6516,"girlfriend":6517,"serbian":6518,"operational":6519,"hence":6520,"sad":6521,"scent":6522,"fur":6523,"dj":6524,"sessions":6525,"hp":6526,"refer":6527,"rarely":6528,"##ora":6529,"exists":6530,"1892":6531,"##ten":6532,"scientists":6533,"dirty":6534,"penalty":6535,"burst":6536,"portrait":6537,"seed":6538,"79":6539,"pole":6540,"limits":6541,"rival":6542,"1894":6543,"stable":6544,"alpha":6545,"grave":6546,"constitutional":6547,"alcohol":6548,"arrest":6549,"flower":6550,"mystery":6551,"devil":6552,"architectural":6553,"relationships":6554,"greatly":6555,"habitat":6556,"##istic":6557,"larry":6558,"progressive":6559,"remote":6560,"cotton":6561,"##ics":6562,"##ok":6563,"preserved":6564,"reaches":6565,"##ming":6566,"cited":6567,"86":6568,"vast":6569,"scholarship":6570,"decisions":6571,"cbs":6572,"joy":6573,"teach":6574,"1885":6575,"editions":6576,"knocked":6577,"eve":6578,"searching":6579,"partly":6580,"participation":6581,"gap":6582,"animated":6583,"fate":6584,"excellent":6585,"##ett":6586,"na":6587,"87":6588,"alternate":6589,"saints":6590,"youngest":6591,"##ily":6592,"climbed":6593,"##ita":6594,"##tors":6595,"suggest":6596,"##ct":6597,"discussion":6598,"staying":6599,"choir":6600,"lakes":6601,"jacket":6602,"revenue":6603,"nevertheless":6604,"peaked":6605,"instrument":6606,"wondering":6607,"annually":6608,"managing":6609,"neil":6610,"1891":6611,"signing":6612,"terry":6613,"##ice":6614,"apply":6615,"clinical":6616,"brooklyn":6617,"aim":6618,"catherine":6619,"fuck":6620,"farmers":6621,"figured":6622,"ninth":6623,"pride":6624,"hugh":6625,"evolution":6626,"ordinary":6627,"involvement":6628,"comfortable":6629,"shouted":6630,"tech":6631,"encouraged":6632,"taiwan":6633,"representation":6634,"sharing":6635,"##lia":6636,"##em":6637,"panic":6638,"exact":6639,"cargo":6640,"competing":6641,"fat":6642,"cried":6643,"83":6644,"1920s":6645,"occasions":6646,"pa":6647,"cabin":6648,"borders":6649,"utah":6650,"marcus":6651,"##isation":6652,"badly":6653,"muscles":6654,"##ance":6655,"victorian":6656,"transition":6657,"warner":6658,"bet":6659,"permission":6660,"##rin":6661,"slave":6662,"terrible":6663,"similarly":6664,"shares":6665,"seth":6666,"uefa":6667,"possession":6668,"medals":6669,"benefits":6670,"colleges":6671,"lowered":6672,"perfectly":6673,"mall":6674,"transit":6675,"##ye":6676,"##kar":6677,"publisher":6678,"##ened":6679,"harrison":6680,"deaths":6681,"elevation":6682,"##ae":6683,"asleep":6684,"machines":6685,"sigh":6686,"ash":6687,"hardly":6688,"argument":6689,"occasion":6690,"parent":6691,"leo":6692,"decline":6693,"1888":6694,"contribution":6695,"##ua":6696,"concentration":6697,"1000":6698,"opportunities":6699,"hispanic":6700,"guardian":6701,"extent":6702,"emotions":6703,"hips":6704,"mason":6705,"volumes":6706,"bloody":6707,"controversy":6708,"diameter":6709,"steady":6710,"mistake":6711,"phoenix":6712,"identify":6713,"violin":6714,"##sk":6715,"departure":6716,"richmond":6717,"spin":6718,"funeral":6719,"enemies":6720,"1864":6721,"gear":6722,"literally":6723,"connor":6724,"random":6725,"sergeant":6726,"grab":6727,"confusion":6728,"1865":6729,"transmission":6730,"informed":6731,"op":6732,"leaning":6733,"sacred":6734,"suspended":6735,"thinks":6736,"gates":6737,"portland":6738,"luck":6739,"agencies":6740,"yours":6741,"hull":6742,"expert":6743,"muscle":6744,"layer":6745,"practical":6746,"sculpture":6747,"jerusalem":6748,"latest":6749,"lloyd":6750,"statistics":6751,"deeper":6752,"recommended":6753,"warrior":6754,"arkansas":6755,"mess":6756,"supports":6757,"greg":6758,"eagle":6759,"1880":6760,"recovered":6761,"rated":6762,"concerts":6763,"rushed":6764,"##ano":6765,"stops":6766,"eggs":6767,"files":6768,"premiere":6769,"keith":6770,"##vo":6771,"delhi":6772,"turner":6773,"pit":6774,"affair":6775,"belief":6776,"paint":6777,"##zing":6778,"mate":6779,"##ach":6780,"##ev":6781,"victim":6782,"##ology":6783,"withdrew":6784,"bonus":6785,"styles":6786,"fled":6787,"##ud":6788,"glasgow":6789,"technologies":6790,"funded":6791,"nbc":6792,"adaptation":6793,"##ata":6794,"portrayed":6795,"cooperation":6796,"supporters":6797,"judges":6798,"bernard":6799,"justin":6800,"hallway":6801,"ralph":6802,"##ick":6803,"graduating":6804,"controversial":6805,"distant":6806,"continental":6807,"spider":6808,"bite":6809,"##ho":6810,"recognize":6811,"intention":6812,"mixing":6813,"##ese":6814,"egyptian":6815,"bow":6816,"tourism":6817,"suppose":6818,"claiming":6819,"tiger":6820,"dominated":6821,"participants":6822,"vi":6823,"##ru":6824,"nurse":6825,"partially":6826,"tape":6827,"##rum":6828,"psychology":6829,"##rn":6830,"essential":6831,"touring":6832,"duo":6833,"voting":6834,"civilian":6835,"emotional":6836,"channels":6837,"##king":6838,"apparent":6839,"hebrew":6840,"1887":6841,"tommy":6842,"carrier":6843,"intersection":6844,"beast":6845,"hudson":6846,"##gar":6847,"##zo":6848,"lab":6849,"nova":6850,"bench":6851,"discuss":6852,"costa":6853,"##ered":6854,"detailed":6855,"behalf":6856,"drivers":6857,"unfortunately":6858,"obtain":6859,"##lis":6860,"rocky":6861,"##dae":6862,"siege":6863,"friendship":6864,"honey":6865,"##rian":6866,"1861":6867,"amy":6868,"hang":6869,"posted":6870,"governments":6871,"collins":6872,"respond":6873,"wildlife":6874,"preferred":6875,"operator":6876,"##po":6877,"laura":6878,"pregnant":6879,"videos":6880,"dennis":6881,"suspected":6882,"boots":6883,"instantly":6884,"weird":6885,"automatic":6886,"businessman":6887,"alleged":6888,"placing":6889,"throwing":6890,"ph":6891,"mood":6892,"1862":6893,"perry":6894,"venue":6895,"jet":6896,"remainder":6897,"##lli":6898,"##ci":6899,"passion":6900,"biological":6901,"boyfriend":6902,"1863":6903,"dirt":6904,"buffalo":6905,"ron":6906,"segment":6907,"fa":6908,"abuse":6909,"##era":6910,"genre":6911,"thrown":6912,"stroke":6913,"colored":6914,"stress":6915,"exercise":6916,"displayed":6917,"##gen":6918,"struggled":6919,"##tti":6920,"abroad":6921,"dramatic":6922,"wonderful":6923,"thereafter":6924,"madrid":6925,"component":6926,"widespread":6927,"##sed":6928,"tale":6929,"citizen":6930,"todd":6931,"monday":6932,"1886":6933,"vancouver":6934,"overseas":6935,"forcing":6936,"crying":6937,"descent":6938,"##ris":6939,"discussed":6940,"substantial":6941,"ranks":6942,"regime":6943,"1870":6944,"provinces":6945,"switch":6946,"drum":6947,"zane":6948,"ted":6949,"tribes":6950,"proof":6951,"lp":6952,"cream":6953,"researchers":6954,"volunteer":6955,"manor":6956,"silk":6957,"milan":6958,"donated":6959,"allies":6960,"venture":6961,"principle":6962,"delivery":6963,"enterprise":6964,"##ves":6965,"##ans":6966,"bars":6967,"traditionally":6968,"witch":6969,"reminded":6970,"copper":6971,"##uk":6972,"pete":6973,"inter":6974,"links":6975,"colin":6976,"grinned":6977,"elsewhere":6978,"competitive":6979,"frequent":6980,"##oy":6981,"scream":6982,"##hu":6983,"tension":6984,"texts":6985,"submarine":6986,"finnish":6987,"defending":6988,"defend":6989,"pat":6990,"detail":6991,"1884":6992,"affiliated":6993,"stuart":6994,"themes":6995,"villa":6996,"periods":6997,"tool":6998,"belgian":6999,"ruling":7000,"crimes":7001,"answers":7002,"folded":7003,"licensed":7004,"resort":7005,"demolished":7006,"hans":7007,"lucy":7008,"1881":7009,"lion":7010,"traded":7011,"photographs":7012,"writes":7013,"craig":7014,"##fa":7015,"trials":7016,"generated":7017,"beth":7018,"noble":7019,"debt":7020,"percentage":7021,"yorkshire":7022,"erected":7023,"ss":7024,"viewed":7025,"grades":7026,"confidence":7027,"ceased":7028,"islam":7029,"telephone":7030,"retail":7031,"##ible":7032,"chile":7033,"m²":7034,"roberts":7035,"sixteen":7036,"##ich":7037,"commented":7038,"hampshire":7039,"innocent":7040,"dual":7041,"pounds":7042,"checked":7043,"regulations":7044,"afghanistan":7045,"sung":7046,"rico":7047,"liberty":7048,"assets":7049,"bigger":7050,"options":7051,"angels":7052,"relegated":7053,"tribute":7054,"wells":7055,"attending":7056,"leaf":7057,"##yan":7058,"butler":7059,"romanian":7060,"forum":7061,"monthly":7062,"lisa":7063,"patterns":7064,"gmina":7065,"##tory":7066,"madison":7067,"hurricane":7068,"rev":7069,"##ians":7070,"bristol":7071,"##ula":7072,"elite":7073,"valuable":7074,"disaster":7075,"democracy":7076,"awareness":7077,"germans":7078,"freyja":7079,"##ins":7080,"loop":7081,"absolutely":7082,"paying":7083,"populations":7084,"maine":7085,"sole":7086,"prayer":7087,"spencer":7088,"releases":7089,"doorway":7090,"bull":7091,"##ani":7092,"lover":7093,"midnight":7094,"conclusion":7095,"##sson":7096,"thirteen":7097,"lily":7098,"mediterranean":7099,"##lt":7100,"nhl":7101,"proud":7102,"sample":7103,"##hill":7104,"drummer":7105,"guinea":7106,"##ova":7107,"murphy":7108,"climb":7109,"##ston":7110,"instant":7111,"attributed":7112,"horn":7113,"ain":7114,"railways":7115,"steven":7116,"##ao":7117,"autumn":7118,"ferry":7119,"opponent":7120,"root":7121,"traveling":7122,"secured":7123,"corridor":7124,"stretched":7125,"tales":7126,"sheet":7127,"trinity":7128,"cattle":7129,"helps":7130,"indicates":7131,"manhattan":7132,"murdered":7133,"fitted":7134,"1882":7135,"gentle":7136,"grandmother":7137,"mines":7138,"shocked":7139,"vegas":7140,"produces":7141,"##light":7142,"caribbean":7143,"##ou":7144,"belong":7145,"continuous":7146,"desperate":7147,"drunk":7148,"historically":7149,"trio":7150,"waved":7151,"raf":7152,"dealing":7153,"nathan":7154,"bat":7155,"murmured":7156,"interrupted":7157,"residing":7158,"scientist":7159,"pioneer":7160,"harold":7161,"aaron":7162,"##net":7163,"delta":7164,"attempting":7165,"minority":7166,"mini":7167,"believes":7168,"chorus":7169,"tend":7170,"lots":7171,"eyed":7172,"indoor":7173,"load":7174,"shots":7175,"updated":7176,"jail":7177,"##llo":7178,"concerning":7179,"connecting":7180,"wealth":7181,"##ved":7182,"slaves":7183,"arrive":7184,"rangers":7185,"sufficient":7186,"rebuilt":7187,"##wick":7188,"cardinal":7189,"flood":7190,"muhammad":7191,"whenever":7192,"relation":7193,"runners":7194,"moral":7195,"repair":7196,"viewers":7197,"arriving":7198,"revenge":7199,"punk":7200,"assisted":7201,"bath":7202,"fairly":7203,"breathe":7204,"lists":7205,"innings":7206,"illustrated":7207,"whisper":7208,"nearest":7209,"voters":7210,"clinton":7211,"ties":7212,"ultimate":7213,"screamed":7214,"beijing":7215,"lions":7216,"andre":7217,"fictional":7218,"gathering":7219,"comfort":7220,"radar":7221,"suitable":7222,"dismissed":7223,"hms":7224,"ban":7225,"pine":7226,"wrist":7227,"atmosphere":7228,"voivodeship":7229,"bid":7230,"timber":7231,"##ned":7232,"##nan":7233,"giants":7234,"##ane":7235,"cameron":7236,"recovery":7237,"uss":7238,"identical":7239,"categories":7240,"switched":7241,"serbia":7242,"laughter":7243,"noah":7244,"ensemble":7245,"therapy":7246,"peoples":7247,"touching":7248,"##off":7249,"locally":7250,"pearl":7251,"platforms":7252,"everywhere":7253,"ballet":7254,"tables":7255,"lanka":7256,"herbert":7257,"outdoor":7258,"toured":7259,"derek":7260,"1883":7261,"spaces":7262,"contested":7263,"swept":7264,"1878":7265,"exclusive":7266,"slight":7267,"connections":7268,"##dra":7269,"winds":7270,"prisoner":7271,"collective":7272,"bangladesh":7273,"tube":7274,"publicly":7275,"wealthy":7276,"thai":7277,"##ys":7278,"isolated":7279,"select":7280,"##ric":7281,"insisted":7282,"pen":7283,"fortune":7284,"ticket":7285,"spotted":7286,"reportedly":7287,"animation":7288,"enforcement":7289,"tanks":7290,"110":7291,"decides":7292,"wider":7293,"lowest":7294,"owen":7295,"##time":7296,"nod":7297,"hitting":7298,"##hn":7299,"gregory":7300,"furthermore":7301,"magazines":7302,"fighters":7303,"solutions":7304,"##ery":7305,"pointing":7306,"requested":7307,"peru":7308,"reed":7309,"chancellor":7310,"knights":7311,"mask":7312,"worker":7313,"eldest":7314,"flames":7315,"reduction":7316,"1860":7317,"volunteers":7318,"##tis":7319,"reporting":7320,"##hl":7321,"wire":7322,"advisory":7323,"endemic":7324,"origins":7325,"settlers":7326,"pursue":7327,"knock":7328,"consumer":7329,"1876":7330,"eu":7331,"compound":7332,"creatures":7333,"mansion":7334,"sentenced":7335,"ivan":7336,"deployed":7337,"guitars":7338,"frowned":7339,"involves":7340,"mechanism":7341,"kilometers":7342,"perspective":7343,"shops":7344,"maps":7345,"terminus":7346,"duncan":7347,"alien":7348,"fist":7349,"bridges":7350,"##pers":7351,"heroes":7352,"fed":7353,"derby":7354,"swallowed":7355,"##ros":7356,"patent":7357,"sara":7358,"illness":7359,"characterized":7360,"adventures":7361,"slide":7362,"hawaii":7363,"jurisdiction":7364,"##op":7365,"organised":7366,"##side":7367,"adelaide":7368,"walks":7369,"biology":7370,"se":7371,"##ties":7372,"rogers":7373,"swing":7374,"tightly":7375,"boundaries":7376,"##rie":7377,"prepare":7378,"implementation":7379,"stolen":7380,"##sha":7381,"certified":7382,"colombia":7383,"edwards":7384,"garage":7385,"##mm":7386,"recalled":7387,"##ball":7388,"rage":7389,"harm":7390,"nigeria":7391,"breast":7392,"##ren":7393,"furniture":7394,"pupils":7395,"settle":7396,"##lus":7397,"cuba":7398,"balls":7399,"client":7400,"alaska":7401,"21st":7402,"linear":7403,"thrust":7404,"celebration":7405,"latino":7406,"genetic":7407,"terror":7408,"##cia":7409,"##ening":7410,"lightning":7411,"fee":7412,"witness":7413,"lodge":7414,"establishing":7415,"skull":7416,"##ique":7417,"earning":7418,"hood":7419,"##ei":7420,"rebellion":7421,"wang":7422,"sporting":7423,"warned":7424,"missile":7425,"devoted":7426,"activist":7427,"porch":7428,"worship":7429,"fourteen":7430,"package":7431,"1871":7432,"decorated":7433,"##shire":7434,"housed":7435,"##ock":7436,"chess":7437,"sailed":7438,"doctors":7439,"oscar":7440,"joan":7441,"treat":7442,"garcia":7443,"harbour":7444,"jeremy":7445,"##ire":7446,"traditions":7447,"dominant":7448,"jacques":7449,"##gon":7450,"##wan":7451,"relocated":7452,"1879":7453,"amendment":7454,"sized":7455,"companion":7456,"simultaneously":7457,"volleyball":7458,"spun":7459,"acre":7460,"increases":7461,"stopping":7462,"loves":7463,"belongs":7464,"affect":7465,"drafted":7466,"tossed":7467,"scout":7468,"battles":7469,"1875":7470,"filming":7471,"shoved":7472,"munich":7473,"tenure":7474,"vertical":7475,"romance":7476,"pc":7477,"##cher":7478,"argue":7479,"##ical":7480,"craft":7481,"ranging":7482,"www":7483,"opens":7484,"honest":7485,"tyler":7486,"yesterday":7487,"virtual":7488,"##let":7489,"muslims":7490,"reveal":7491,"snake":7492,"immigrants":7493,"radical":7494,"screaming":7495,"speakers":7496,"firing":7497,"saving":7498,"belonging":7499,"ease":7500,"lighting":7501,"prefecture":7502,"blame":7503,"farmer":7504,"hungry":7505,"grows":7506,"rubbed":7507,"beam":7508,"sur":7509,"subsidiary":7510,"##cha":7511,"armenian":7512,"sao":7513,"dropping":7514,"conventional":7515,"##fer":7516,"microsoft":7517,"reply":7518,"qualify":7519,"spots":7520,"1867":7521,"sweat":7522,"festivals":7523,"##ken":7524,"immigration":7525,"physician":7526,"discover":7527,"exposure":7528,"sandy":7529,"explanation":7530,"isaac":7531,"implemented":7532,"##fish":7533,"hart":7534,"initiated":7535,"connect":7536,"stakes":7537,"presents":7538,"heights":7539,"householder":7540,"pleased":7541,"tourist":7542,"regardless":7543,"slip":7544,"closest":7545,"##ction":7546,"surely":7547,"sultan":7548,"brings":7549,"riley":7550,"preparation":7551,"aboard":7552,"slammed":7553,"baptist":7554,"experiment":7555,"ongoing":7556,"interstate":7557,"organic":7558,"playoffs":7559,"##ika":7560,"1877":7561,"130":7562,"##tar":7563,"hindu":7564,"error":7565,"tours":7566,"tier":7567,"plenty":7568,"arrangements":7569,"talks":7570,"trapped":7571,"excited":7572,"sank":7573,"ho":7574,"athens":7575,"1872":7576,"denver":7577,"welfare":7578,"suburb":7579,"athletes":7580,"trick":7581,"diverse":7582,"belly":7583,"exclusively":7584,"yelled":7585,"1868":7586,"##med":7587,"conversion":7588,"##ette":7589,"1874":7590,"internationally":7591,"computers":7592,"conductor":7593,"abilities":7594,"sensitive":7595,"hello":7596,"dispute":7597,"measured":7598,"globe":7599,"rocket":7600,"prices":7601,"amsterdam":7602,"flights":7603,"tigers":7604,"inn":7605,"municipalities":7606,"emotion":7607,"references":7608,"3d":7609,"##mus":7610,"explains":7611,"airlines":7612,"manufactured":7613,"pm":7614,"archaeological":7615,"1873":7616,"interpretation":7617,"devon":7618,"comment":7619,"##ites":7620,"settlements":7621,"kissing":7622,"absolute":7623,"improvement":7624,"suite":7625,"impressed":7626,"barcelona":7627,"sullivan":7628,"jefferson":7629,"towers":7630,"jesse":7631,"julie":7632,"##tin":7633,"##lu":7634,"grandson":7635,"hi":7636,"gauge":7637,"regard":7638,"rings":7639,"interviews":7640,"trace":7641,"raymond":7642,"thumb":7643,"departments":7644,"burns":7645,"serial":7646,"bulgarian":7647,"scores":7648,"demonstrated":7649,"##ix":7650,"1866":7651,"kyle":7652,"alberta":7653,"underneath":7654,"romanized":7655,"##ward":7656,"relieved":7657,"acquisition":7658,"phrase":7659,"cliff":7660,"reveals":7661,"han":7662,"cuts":7663,"merger":7664,"custom":7665,"##dar":7666,"nee":7667,"gilbert":7668,"graduation":7669,"##nts":7670,"assessment":7671,"cafe":7672,"difficulty":7673,"demands":7674,"swung":7675,"democrat":7676,"jennifer":7677,"commons":7678,"1940s":7679,"grove":7680,"##yo":7681,"completing":7682,"focuses":7683,"sum":7684,"substitute":7685,"bearing":7686,"stretch":7687,"reception":7688,"##py":7689,"reflected":7690,"essentially":7691,"destination":7692,"pairs":7693,"##ched":7694,"survival":7695,"resource":7696,"##bach":7697,"promoting":7698,"doubles":7699,"messages":7700,"tear":7701,"##down":7702,"##fully":7703,"parade":7704,"florence":7705,"harvey":7706,"incumbent":7707,"partial":7708,"framework":7709,"900":7710,"pedro":7711,"frozen":7712,"procedure":7713,"olivia":7714,"controls":7715,"##mic":7716,"shelter":7717,"personally":7718,"temperatures":7719,"##od":7720,"brisbane":7721,"tested":7722,"sits":7723,"marble":7724,"comprehensive":7725,"oxygen":7726,"leonard":7727,"##kov":7728,"inaugural":7729,"iranian":7730,"referring":7731,"quarters":7732,"attitude":7733,"##ivity":7734,"mainstream":7735,"lined":7736,"mars":7737,"dakota":7738,"norfolk":7739,"unsuccessful":7740,"##°":7741,"explosion":7742,"helicopter":7743,"congressional":7744,"##sing":7745,"inspector":7746,"bitch":7747,"seal":7748,"departed":7749,"divine":7750,"##ters":7751,"coaching":7752,"examination":7753,"punishment":7754,"manufacturer":7755,"sink":7756,"columns":7757,"unincorporated":7758,"signals":7759,"nevada":7760,"squeezed":7761,"dylan":7762,"dining":7763,"photos":7764,"martial":7765,"manuel":7766,"eighteen":7767,"elevator":7768,"brushed":7769,"plates":7770,"ministers":7771,"ivy":7772,"congregation":7773,"##len":7774,"slept":7775,"specialized":7776,"taxes":7777,"curve":7778,"restricted":7779,"negotiations":7780,"likes":7781,"statistical":7782,"arnold":7783,"inspiration":7784,"execution":7785,"bold":7786,"intermediate":7787,"significance":7788,"margin":7789,"ruler":7790,"wheels":7791,"gothic":7792,"intellectual":7793,"dependent":7794,"listened":7795,"eligible":7796,"buses":7797,"widow":7798,"syria":7799,"earn":7800,"cincinnati":7801,"collapsed":7802,"recipient":7803,"secrets":7804,"accessible":7805,"philippine":7806,"maritime":7807,"goddess":7808,"clerk":7809,"surrender":7810,"breaks":7811,"playoff":7812,"database":7813,"##ified":7814,"##lon":7815,"ideal":7816,"beetle":7817,"aspect":7818,"soap":7819,"regulation":7820,"strings":7821,"expand":7822,"anglo":7823,"shorter":7824,"crosses":7825,"retreat":7826,"tough":7827,"coins":7828,"wallace":7829,"directions":7830,"pressing":7831,"##oon":7832,"shipping":7833,"locomotives":7834,"comparison":7835,"topics":7836,"nephew":7837,"##mes":7838,"distinction":7839,"honors":7840,"travelled":7841,"sierra":7842,"ibn":7843,"##over":7844,"fortress":7845,"sa":7846,"recognised":7847,"carved":7848,"1869":7849,"clients":7850,"##dan":7851,"intent":7852,"##mar":7853,"coaches":7854,"describing":7855,"bread":7856,"##ington":7857,"beaten":7858,"northwestern":7859,"##ona":7860,"merit":7861,"youtube":7862,"collapse":7863,"challenges":7864,"em":7865,"historians":7866,"objective":7867,"submitted":7868,"virus":7869,"attacking":7870,"drake":7871,"assume":7872,"##ere":7873,"diseases":7874,"marc":7875,"stem":7876,"leeds":7877,"##cus":7878,"##ab":7879,"farming":7880,"glasses":7881,"##lock":7882,"visits":7883,"nowhere":7884,"fellowship":7885,"relevant":7886,"carries":7887,"restaurants":7888,"experiments":7889,"101":7890,"constantly":7891,"bases":7892,"targets":7893,"shah":7894,"tenth":7895,"opponents":7896,"verse":7897,"territorial":7898,"##ira":7899,"writings":7900,"corruption":7901,"##hs":7902,"instruction":7903,"inherited":7904,"reverse":7905,"emphasis":7906,"##vic":7907,"employee":7908,"arch":7909,"keeps":7910,"rabbi":7911,"watson":7912,"payment":7913,"uh":7914,"##ala":7915,"nancy":7916,"##tre":7917,"venice":7918,"fastest":7919,"sexy":7920,"banned":7921,"adrian":7922,"properly":7923,"ruth":7924,"touchdown":7925,"dollar":7926,"boards":7927,"metre":7928,"circles":7929,"edges":7930,"favour":7931,"comments":7932,"ok":7933,"travels":7934,"liberation":7935,"scattered":7936,"firmly":7937,"##ular":7938,"holland":7939,"permitted":7940,"diesel":7941,"kenya":7942,"den":7943,"originated":7944,"##ral":7945,"demons":7946,"resumed":7947,"dragged":7948,"rider":7949,"##rus":7950,"servant":7951,"blinked":7952,"extend":7953,"torn":7954,"##ias":7955,"##sey":7956,"input":7957,"meal":7958,"everybody":7959,"cylinder":7960,"kinds":7961,"camps":7962,"##fe":7963,"bullet":7964,"logic":7965,"##wn":7966,"croatian":7967,"evolved":7968,"healthy":7969,"fool":7970,"chocolate":7971,"wise":7972,"preserve":7973,"pradesh":7974,"##ess":7975,"respective":7976,"1850":7977,"##ew":7978,"chicken":7979,"artificial":7980,"gross":7981,"corresponding":7982,"convicted":7983,"cage":7984,"caroline":7985,"dialogue":7986,"##dor":7987,"narrative":7988,"stranger":7989,"mario":7990,"br":7991,"christianity":7992,"failing":7993,"trent":7994,"commanding":7995,"buddhist":7996,"1848":7997,"maurice":7998,"focusing":7999,"yale":8000,"bike":8001,"altitude":8002,"##ering":8003,"mouse":8004,"revised":8005,"##sley":8006,"veteran":8007,"##ig":8008,"pulls":8009,"theology":8010,"crashed":8011,"campaigns":8012,"legion":8013,"##ability":8014,"drag":8015,"excellence":8016,"customer":8017,"cancelled":8018,"intensity":8019,"excuse":8020,"##lar":8021,"liga":8022,"participating":8023,"contributing":8024,"printing":8025,"##burn":8026,"variable":8027,"##rk":8028,"curious":8029,"bin":8030,"legacy":8031,"renaissance":8032,"##my":8033,"symptoms":8034,"binding":8035,"vocalist":8036,"dancer":8037,"##nie":8038,"grammar":8039,"gospel":8040,"democrats":8041,"ya":8042,"enters":8043,"sc":8044,"diplomatic":8045,"hitler":8046,"##ser":8047,"clouds":8048,"mathematical":8049,"quit":8050,"defended":8051,"oriented":8052,"##heim":8053,"fundamental":8054,"hardware":8055,"impressive":8056,"equally":8057,"convince":8058,"confederate":8059,"guilt":8060,"chuck":8061,"sliding":8062,"##ware":8063,"magnetic":8064,"narrowed":8065,"petersburg":8066,"bulgaria":8067,"otto":8068,"phd":8069,"skill":8070,"##ama":8071,"reader":8072,"hopes":8073,"pitcher":8074,"reservoir":8075,"hearts":8076,"automatically":8077,"expecting":8078,"mysterious":8079,"bennett":8080,"extensively":8081,"imagined":8082,"seeds":8083,"monitor":8084,"fix":8085,"##ative":8086,"journalism":8087,"struggling":8088,"signature":8089,"ranch":8090,"encounter":8091,"photographer":8092,"observation":8093,"protests":8094,"##pin":8095,"influences":8096,"##hr":8097,"calendar":8098,"##all":8099,"cruz":8100,"croatia":8101,"locomotive":8102,"hughes":8103,"naturally":8104,"shakespeare":8105,"basement":8106,"hook":8107,"uncredited":8108,"faded":8109,"theories":8110,"approaches":8111,"dare":8112,"phillips":8113,"filling":8114,"fury":8115,"obama":8116,"##ain":8117,"efficient":8118,"arc":8119,"deliver":8120,"min":8121,"raid":8122,"breeding":8123,"inducted":8124,"leagues":8125,"efficiency":8126,"axis":8127,"montana":8128,"eagles":8129,"##ked":8130,"supplied":8131,"instructions":8132,"karen":8133,"picking":8134,"indicating":8135,"trap":8136,"anchor":8137,"practically":8138,"christians":8139,"tomb":8140,"vary":8141,"occasional":8142,"electronics":8143,"lords":8144,"readers":8145,"newcastle":8146,"faint":8147,"innovation":8148,"collect":8149,"situations":8150,"engagement":8151,"160":8152,"claude":8153,"mixture":8154,"##feld":8155,"peer":8156,"tissue":8157,"logo":8158,"lean":8159,"##ration":8160,"°f":8161,"floors":8162,"##ven":8163,"architects":8164,"reducing":8165,"##our":8166,"##ments":8167,"rope":8168,"1859":8169,"ottawa":8170,"##har":8171,"samples":8172,"banking":8173,"declaration":8174,"proteins":8175,"resignation":8176,"francois":8177,"saudi":8178,"advocate":8179,"exhibited":8180,"armor":8181,"twins":8182,"divorce":8183,"##ras":8184,"abraham":8185,"reviewed":8186,"jo":8187,"temporarily":8188,"matrix":8189,"physically":8190,"pulse":8191,"curled":8192,"##ena":8193,"difficulties":8194,"bengal":8195,"usage":8196,"##ban":8197,"annie":8198,"riders":8199,"certificate":8200,"##pi":8201,"holes":8202,"warsaw":8203,"distinctive":8204,"jessica":8205,"##mon":8206,"mutual":8207,"1857":8208,"customs":8209,"circular":8210,"eugene":8211,"removal":8212,"loaded":8213,"mere":8214,"vulnerable":8215,"depicted":8216,"generations":8217,"dame":8218,"heir":8219,"enormous":8220,"lightly":8221,"climbing":8222,"pitched":8223,"lessons":8224,"pilots":8225,"nepal":8226,"ram":8227,"google":8228,"preparing":8229,"brad":8230,"louise":8231,"renowned":8232,"##₂":8233,"liam":8234,"##ably":8235,"plaza":8236,"shaw":8237,"sophie":8238,"brilliant":8239,"bills":8240,"##bar":8241,"##nik":8242,"fucking":8243,"mainland":8244,"server":8245,"pleasant":8246,"seized":8247,"veterans":8248,"jerked":8249,"fail":8250,"beta":8251,"brush":8252,"radiation":8253,"stored":8254,"warmth":8255,"southeastern":8256,"nate":8257,"sin":8258,"raced":8259,"berkeley":8260,"joke":8261,"athlete":8262,"designation":8263,"trunk":8264,"##low":8265,"roland":8266,"qualification":8267,"archives":8268,"heels":8269,"artwork":8270,"receives":8271,"judicial":8272,"reserves":8273,"##bed":8274,"woke":8275,"installation":8276,"abu":8277,"floating":8278,"fake":8279,"lesser":8280,"excitement":8281,"interface":8282,"concentrated":8283,"addressed":8284,"characteristic":8285,"amanda":8286,"saxophone":8287,"monk":8288,"auto":8289,"##bus":8290,"releasing":8291,"egg":8292,"dies":8293,"interaction":8294,"defender":8295,"ce":8296,"outbreak":8297,"glory":8298,"loving":8299,"##bert":8300,"sequel":8301,"consciousness":8302,"http":8303,"awake":8304,"ski":8305,"enrolled":8306,"##ress":8307,"handling":8308,"rookie":8309,"brow":8310,"somebody":8311,"biography":8312,"warfare":8313,"amounts":8314,"contracts":8315,"presentation":8316,"fabric":8317,"dissolved":8318,"challenged":8319,"meter":8320,"psychological":8321,"lt":8322,"elevated":8323,"rally":8324,"accurate":8325,"##tha":8326,"hospitals":8327,"undergraduate":8328,"specialist":8329,"venezuela":8330,"exhibit":8331,"shed":8332,"nursing":8333,"protestant":8334,"fluid":8335,"structural":8336,"footage":8337,"jared":8338,"consistent":8339,"prey":8340,"##ska":8341,"succession":8342,"reflect":8343,"exile":8344,"lebanon":8345,"wiped":8346,"suspect":8347,"shanghai":8348,"resting":8349,"integration":8350,"preservation":8351,"marvel":8352,"variant":8353,"pirates":8354,"sheep":8355,"rounded":8356,"capita":8357,"sailing":8358,"colonies":8359,"manuscript":8360,"deemed":8361,"variations":8362,"clarke":8363,"functional":8364,"emerging":8365,"boxing":8366,"relaxed":8367,"curse":8368,"azerbaijan":8369,"heavyweight":8370,"nickname":8371,"editorial":8372,"rang":8373,"grid":8374,"tightened":8375,"earthquake":8376,"flashed":8377,"miguel":8378,"rushing":8379,"##ches":8380,"improvements":8381,"boxes":8382,"brooks":8383,"180":8384,"consumption":8385,"molecular":8386,"felix":8387,"societies":8388,"repeatedly":8389,"variation":8390,"aids":8391,"civic":8392,"graphics":8393,"professionals":8394,"realm":8395,"autonomous":8396,"receiver":8397,"delayed":8398,"workshop":8399,"militia":8400,"chairs":8401,"trump":8402,"canyon":8403,"##point":8404,"harsh":8405,"extending":8406,"lovely":8407,"happiness":8408,"##jan":8409,"stake":8410,"eyebrows":8411,"embassy":8412,"wellington":8413,"hannah":8414,"##ella":8415,"sony":8416,"corners":8417,"bishops":8418,"swear":8419,"cloth":8420,"contents":8421,"xi":8422,"namely":8423,"commenced":8424,"1854":8425,"stanford":8426,"nashville":8427,"courage":8428,"graphic":8429,"commitment":8430,"garrison":8431,"##bin":8432,"hamlet":8433,"clearing":8434,"rebels":8435,"attraction":8436,"literacy":8437,"cooking":8438,"ruins":8439,"temples":8440,"jenny":8441,"humanity":8442,"celebrate":8443,"hasn":8444,"freight":8445,"sixty":8446,"rebel":8447,"bastard":8448,"##art":8449,"newton":8450,"##ada":8451,"deer":8452,"##ges":8453,"##ching":8454,"smiles":8455,"delaware":8456,"singers":8457,"##ets":8458,"approaching":8459,"assists":8460,"flame":8461,"##ph":8462,"boulevard":8463,"barrel":8464,"planted":8465,"##ome":8466,"pursuit":8467,"##sia":8468,"consequences":8469,"posts":8470,"shallow":8471,"invitation":8472,"rode":8473,"depot":8474,"ernest":8475,"kane":8476,"rod":8477,"concepts":8478,"preston":8479,"topic":8480,"chambers":8481,"striking":8482,"blast":8483,"arrives":8484,"descendants":8485,"montgomery":8486,"ranges":8487,"worlds":8488,"##lay":8489,"##ari":8490,"span":8491,"chaos":8492,"praise":8493,"##ag":8494,"fewer":8495,"1855":8496,"sanctuary":8497,"mud":8498,"fbi":8499,"##ions":8500,"programmes":8501,"maintaining":8502,"unity":8503,"harper":8504,"bore":8505,"handsome":8506,"closure":8507,"tournaments":8508,"thunder":8509,"nebraska":8510,"linda":8511,"facade":8512,"puts":8513,"satisfied":8514,"argentine":8515,"dale":8516,"cork":8517,"dome":8518,"panama":8519,"##yl":8520,"1858":8521,"tasks":8522,"experts":8523,"##ates":8524,"feeding":8525,"equation":8526,"##las":8527,"##ida":8528,"##tu":8529,"engage":8530,"bryan":8531,"##ax":8532,"um":8533,"quartet":8534,"melody":8535,"disbanded":8536,"sheffield":8537,"blocked":8538,"gasped":8539,"delay":8540,"kisses":8541,"maggie":8542,"connects":8543,"##non":8544,"sts":8545,"poured":8546,"creator":8547,"publishers":8548,"##we":8549,"guided":8550,"ellis":8551,"extinct":8552,"hug":8553,"gaining":8554,"##ord":8555,"complicated":8556,"##bility":8557,"poll":8558,"clenched":8559,"investigate":8560,"##use":8561,"thereby":8562,"quantum":8563,"spine":8564,"cdp":8565,"humor":8566,"kills":8567,"administered":8568,"semifinals":8569,"##du":8570,"encountered":8571,"ignore":8572,"##bu":8573,"commentary":8574,"##maker":8575,"bother":8576,"roosevelt":8577,"140":8578,"plains":8579,"halfway":8580,"flowing":8581,"cultures":8582,"crack":8583,"imprisoned":8584,"neighboring":8585,"airline":8586,"##ses":8587,"##view":8588,"##mate":8589,"##ec":8590,"gather":8591,"wolves":8592,"marathon":8593,"transformed":8594,"##ill":8595,"cruise":8596,"organisations":8597,"carol":8598,"punch":8599,"exhibitions":8600,"numbered":8601,"alarm":8602,"ratings":8603,"daddy":8604,"silently":8605,"##stein":8606,"queens":8607,"colours":8608,"impression":8609,"guidance":8610,"liu":8611,"tactical":8612,"##rat":8613,"marshal":8614,"della":8615,"arrow":8616,"##ings":8617,"rested":8618,"feared":8619,"tender":8620,"owns":8621,"bitter":8622,"advisor":8623,"escort":8624,"##ides":8625,"spare":8626,"farms":8627,"grants":8628,"##ene":8629,"dragons":8630,"encourage":8631,"colleagues":8632,"cameras":8633,"##und":8634,"sucked":8635,"pile":8636,"spirits":8637,"prague":8638,"statements":8639,"suspension":8640,"landmark":8641,"fence":8642,"torture":8643,"recreation":8644,"bags":8645,"permanently":8646,"survivors":8647,"pond":8648,"spy":8649,"predecessor":8650,"bombing":8651,"coup":8652,"##og":8653,"protecting":8654,"transformation":8655,"glow":8656,"##lands":8657,"##book":8658,"dug":8659,"priests":8660,"andrea":8661,"feat":8662,"barn":8663,"jumping":8664,"##chen":8665,"##ologist":8666,"##con":8667,"casualties":8668,"stern":8669,"auckland":8670,"pipe":8671,"serie":8672,"revealing":8673,"ba":8674,"##bel":8675,"trevor":8676,"mercy":8677,"spectrum":8678,"yang":8679,"consist":8680,"governing":8681,"collaborated":8682,"possessed":8683,"epic":8684,"comprises":8685,"blew":8686,"shane":8687,"##ack":8688,"lopez":8689,"honored":8690,"magical":8691,"sacrifice":8692,"judgment":8693,"perceived":8694,"hammer":8695,"mtv":8696,"baronet":8697,"tune":8698,"das":8699,"missionary":8700,"sheets":8701,"350":8702,"neutral":8703,"oral":8704,"threatening":8705,"attractive":8706,"shade":8707,"aims":8708,"seminary":8709,"##master":8710,"estates":8711,"1856":8712,"michel":8713,"wounds":8714,"refugees":8715,"manufacturers":8716,"##nic":8717,"mercury":8718,"syndrome":8719,"porter":8720,"##iya":8721,"##din":8722,"hamburg":8723,"identification":8724,"upstairs":8725,"purse":8726,"widened":8727,"pause":8728,"cared":8729,"breathed":8730,"affiliate":8731,"santiago":8732,"prevented":8733,"celtic":8734,"fisher":8735,"125":8736,"recruited":8737,"byzantine":8738,"reconstruction":8739,"farther":8740,"##mp":8741,"diet":8742,"sake":8743,"au":8744,"spite":8745,"sensation":8746,"##ert":8747,"blank":8748,"separation":8749,"105":8750,"##hon":8751,"vladimir":8752,"armies":8753,"anime":8754,"##lie":8755,"accommodate":8756,"orbit":8757,"cult":8758,"sofia":8759,"archive":8760,"##ify":8761,"##box":8762,"founders":8763,"sustained":8764,"disorder":8765,"honours":8766,"northeastern":8767,"mia":8768,"crops":8769,"violet":8770,"threats":8771,"blanket":8772,"fires":8773,"canton":8774,"followers":8775,"southwestern":8776,"prototype":8777,"voyage":8778,"assignment":8779,"altered":8780,"moderate":8781,"protocol":8782,"pistol":8783,"##eo":8784,"questioned":8785,"brass":8786,"lifting":8787,"1852":8788,"math":8789,"authored":8790,"##ual":8791,"doug":8792,"dimensional":8793,"dynamic":8794,"##san":8795,"1851":8796,"pronounced":8797,"grateful":8798,"quest":8799,"uncomfortable":8800,"boom":8801,"presidency":8802,"stevens":8803,"relating":8804,"politicians":8805,"chen":8806,"barrier":8807,"quinn":8808,"diana":8809,"mosque":8810,"tribal":8811,"cheese":8812,"palmer":8813,"portions":8814,"sometime":8815,"chester":8816,"treasure":8817,"wu":8818,"bend":8819,"download":8820,"millions":8821,"reforms":8822,"registration":8823,"##osa":8824,"consequently":8825,"monitoring":8826,"ate":8827,"preliminary":8828,"brandon":8829,"invented":8830,"ps":8831,"eaten":8832,"exterior":8833,"intervention":8834,"ports":8835,"documented":8836,"log":8837,"displays":8838,"lecture":8839,"sally":8840,"favourite":8841,"##itz":8842,"vermont":8843,"lo":8844,"invisible":8845,"isle":8846,"breed":8847,"##ator":8848,"journalists":8849,"relay":8850,"speaks":8851,"backward":8852,"explore":8853,"midfielder":8854,"actively":8855,"stefan":8856,"procedures":8857,"cannon":8858,"blond":8859,"kenneth":8860,"centered":8861,"servants":8862,"chains":8863,"libraries":8864,"malcolm":8865,"essex":8866,"henri":8867,"slavery":8868,"##hal":8869,"facts":8870,"fairy":8871,"coached":8872,"cassie":8873,"cats":8874,"washed":8875,"cop":8876,"##fi":8877,"announcement":8878,"item":8879,"2000s":8880,"vinyl":8881,"activated":8882,"marco":8883,"frontier":8884,"growled":8885,"curriculum":8886,"##das":8887,"loyal":8888,"accomplished":8889,"leslie":8890,"ritual":8891,"kenny":8892,"##00":8893,"vii":8894,"napoleon":8895,"hollow":8896,"hybrid":8897,"jungle":8898,"stationed":8899,"friedrich":8900,"counted":8901,"##ulated":8902,"platinum":8903,"theatrical":8904,"seated":8905,"col":8906,"rubber":8907,"glen":8908,"1840":8909,"diversity":8910,"healing":8911,"extends":8912,"id":8913,"provisions":8914,"administrator":8915,"columbus":8916,"##oe":8917,"tributary":8918,"te":8919,"assured":8920,"org":8921,"##uous":8922,"prestigious":8923,"examined":8924,"lectures":8925,"grammy":8926,"ronald":8927,"associations":8928,"bailey":8929,"allan":8930,"essays":8931,"flute":8932,"believing":8933,"consultant":8934,"proceedings":8935,"travelling":8936,"1853":8937,"kit":8938,"kerala":8939,"yugoslavia":8940,"buddy":8941,"methodist":8942,"##ith":8943,"burial":8944,"centres":8945,"batman":8946,"##nda":8947,"discontinued":8948,"bo":8949,"dock":8950,"stockholm":8951,"lungs":8952,"severely":8953,"##nk":8954,"citing":8955,"manga":8956,"##ugh":8957,"steal":8958,"mumbai":8959,"iraqi":8960,"robot":8961,"celebrity":8962,"bride":8963,"broadcasts":8964,"abolished":8965,"pot":8966,"joel":8967,"overhead":8968,"franz":8969,"packed":8970,"reconnaissance":8971,"johann":8972,"acknowledged":8973,"introduce":8974,"handled":8975,"doctorate":8976,"developments":8977,"drinks":8978,"alley":8979,"palestine":8980,"##nis":8981,"##aki":8982,"proceeded":8983,"recover":8984,"bradley":8985,"grain":8986,"patch":8987,"afford":8988,"infection":8989,"nationalist":8990,"legendary":8991,"##ath":8992,"interchange":8993,"virtually":8994,"gen":8995,"gravity":8996,"exploration":8997,"amber":8998,"vital":8999,"wishes":9000,"powell":9001,"doctrine":9002,"elbow":9003,"screenplay":9004,"##bird":9005,"contribute":9006,"indonesian":9007,"pet":9008,"creates":9009,"##com":9010,"enzyme":9011,"kylie":9012,"discipline":9013,"drops":9014,"manila":9015,"hunger":9016,"##ien":9017,"layers":9018,"suffer":9019,"fever":9020,"bits":9021,"monica":9022,"keyboard":9023,"manages":9024,"##hood":9025,"searched":9026,"appeals":9027,"##bad":9028,"testament":9029,"grande":9030,"reid":9031,"##war":9032,"beliefs":9033,"congo":9034,"##ification":9035,"##dia":9036,"si":9037,"requiring":9038,"##via":9039,"casey":9040,"1849":9041,"regret":9042,"streak":9043,"rape":9044,"depends":9045,"syrian":9046,"sprint":9047,"pound":9048,"tourists":9049,"upcoming":9050,"pub":9051,"##xi":9052,"tense":9053,"##els":9054,"practiced":9055,"echo":9056,"nationwide":9057,"guild":9058,"motorcycle":9059,"liz":9060,"##zar":9061,"chiefs":9062,"desired":9063,"elena":9064,"bye":9065,"precious":9066,"absorbed":9067,"relatives":9068,"booth":9069,"pianist":9070,"##mal":9071,"citizenship":9072,"exhausted":9073,"wilhelm":9074,"##ceae":9075,"##hed":9076,"noting":9077,"quarterback":9078,"urge":9079,"hectares":9080,"##gue":9081,"ace":9082,"holly":9083,"##tal":9084,"blonde":9085,"davies":9086,"parked":9087,"sustainable":9088,"stepping":9089,"twentieth":9090,"airfield":9091,"galaxy":9092,"nest":9093,"chip":9094,"##nell":9095,"tan":9096,"shaft":9097,"paulo":9098,"requirement":9099,"##zy":9100,"paradise":9101,"tobacco":9102,"trans":9103,"renewed":9104,"vietnamese":9105,"##cker":9106,"##ju":9107,"suggesting":9108,"catching":9109,"holmes":9110,"enjoying":9111,"md":9112,"trips":9113,"colt":9114,"holder":9115,"butterfly":9116,"nerve":9117,"reformed":9118,"cherry":9119,"bowling":9120,"trailer":9121,"carriage":9122,"goodbye":9123,"appreciate":9124,"toy":9125,"joshua":9126,"interactive":9127,"enabled":9128,"involve":9129,"##kan":9130,"collar":9131,"determination":9132,"bunch":9133,"facebook":9134,"recall":9135,"shorts":9136,"superintendent":9137,"episcopal":9138,"frustration":9139,"giovanni":9140,"nineteenth":9141,"laser":9142,"privately":9143,"array":9144,"circulation":9145,"##ovic":9146,"armstrong":9147,"deals":9148,"painful":9149,"permit":9150,"discrimination":9151,"##wi":9152,"aires":9153,"retiring":9154,"cottage":9155,"ni":9156,"##sta":9157,"horizon":9158,"ellen":9159,"jamaica":9160,"ripped":9161,"fernando":9162,"chapters":9163,"playstation":9164,"patron":9165,"lecturer":9166,"navigation":9167,"behaviour":9168,"genes":9169,"georgian":9170,"export":9171,"solomon":9172,"rivals":9173,"swift":9174,"seventeen":9175,"rodriguez":9176,"princeton":9177,"independently":9178,"sox":9179,"1847":9180,"arguing":9181,"entity":9182,"casting":9183,"hank":9184,"criteria":9185,"oakland":9186,"geographic":9187,"milwaukee":9188,"reflection":9189,"expanding":9190,"conquest":9191,"dubbed":9192,"##tv":9193,"halt":9194,"brave":9195,"brunswick":9196,"doi":9197,"arched":9198,"curtis":9199,"divorced":9200,"predominantly":9201,"somerset":9202,"streams":9203,"ugly":9204,"zoo":9205,"horrible":9206,"curved":9207,"buenos":9208,"fierce":9209,"dictionary":9210,"vector":9211,"theological":9212,"unions":9213,"handful":9214,"stability":9215,"chan":9216,"punjab":9217,"segments":9218,"##lly":9219,"altar":9220,"ignoring":9221,"gesture":9222,"monsters":9223,"pastor":9224,"##stone":9225,"thighs":9226,"unexpected":9227,"operators":9228,"abruptly":9229,"coin":9230,"compiled":9231,"associates":9232,"improving":9233,"migration":9234,"pin":9235,"##ose":9236,"compact":9237,"collegiate":9238,"reserved":9239,"##urs":9240,"quarterfinals":9241,"roster":9242,"restore":9243,"assembled":9244,"hurry":9245,"oval":9246,"##cies":9247,"1846":9248,"flags":9249,"martha":9250,"##del":9251,"victories":9252,"sharply":9253,"##rated":9254,"argues":9255,"deadly":9256,"neo":9257,"drawings":9258,"symbols":9259,"performer":9260,"##iel":9261,"griffin":9262,"restrictions":9263,"editing":9264,"andrews":9265,"java":9266,"journals":9267,"arabia":9268,"compositions":9269,"dee":9270,"pierce":9271,"removing":9272,"hindi":9273,"casino":9274,"runway":9275,"civilians":9276,"minds":9277,"nasa":9278,"hotels":9279,"##zation":9280,"refuge":9281,"rent":9282,"retain":9283,"potentially":9284,"conferences":9285,"suburban":9286,"conducting":9287,"##tto":9288,"##tions":9289,"##tle":9290,"descended":9291,"massacre":9292,"##cal":9293,"ammunition":9294,"terrain":9295,"fork":9296,"souls":9297,"counts":9298,"chelsea":9299,"durham":9300,"drives":9301,"cab":9302,"##bank":9303,"perth":9304,"realizing":9305,"palestinian":9306,"finn":9307,"simpson":9308,"##dal":9309,"betty":9310,"##ule":9311,"moreover":9312,"particles":9313,"cardinals":9314,"tent":9315,"evaluation":9316,"extraordinary":9317,"##oid":9318,"inscription":9319,"##works":9320,"wednesday":9321,"chloe":9322,"maintains":9323,"panels":9324,"ashley":9325,"trucks":9326,"##nation":9327,"cluster":9328,"sunlight":9329,"strikes":9330,"zhang":9331,"##wing":9332,"dialect":9333,"canon":9334,"##ap":9335,"tucked":9336,"##ws":9337,"collecting":9338,"##mas":9339,"##can":9340,"##sville":9341,"maker":9342,"quoted":9343,"evan":9344,"franco":9345,"aria":9346,"buying":9347,"cleaning":9348,"eva":9349,"closet":9350,"provision":9351,"apollo":9352,"clinic":9353,"rat":9354,"##ez":9355,"necessarily":9356,"ac":9357,"##gle":9358,"##ising":9359,"venues":9360,"flipped":9361,"cent":9362,"spreading":9363,"trustees":9364,"checking":9365,"authorized":9366,"##sco":9367,"disappointed":9368,"##ado":9369,"notion":9370,"duration":9371,"trumpet":9372,"hesitated":9373,"topped":9374,"brussels":9375,"rolls":9376,"theoretical":9377,"hint":9378,"define":9379,"aggressive":9380,"repeat":9381,"wash":9382,"peaceful":9383,"optical":9384,"width":9385,"allegedly":9386,"mcdonald":9387,"strict":9388,"copyright":9389,"##illa":9390,"investors":9391,"mar":9392,"jam":9393,"witnesses":9394,"sounding":9395,"miranda":9396,"michelle":9397,"privacy":9398,"hugo":9399,"harmony":9400,"##pp":9401,"valid":9402,"lynn":9403,"glared":9404,"nina":9405,"102":9406,"headquartered":9407,"diving":9408,"boarding":9409,"gibson":9410,"##ncy":9411,"albanian":9412,"marsh":9413,"routine":9414,"dealt":9415,"enhanced":9416,"er":9417,"intelligent":9418,"substance":9419,"targeted":9420,"enlisted":9421,"discovers":9422,"spinning":9423,"observations":9424,"pissed":9425,"smoking":9426,"rebecca":9427,"capitol":9428,"visa":9429,"varied":9430,"costume":9431,"seemingly":9432,"indies":9433,"compensation":9434,"surgeon":9435,"thursday":9436,"arsenal":9437,"westminster":9438,"suburbs":9439,"rid":9440,"anglican":9441,"##ridge":9442,"knots":9443,"foods":9444,"alumni":9445,"lighter":9446,"fraser":9447,"whoever":9448,"portal":9449,"scandal":9450,"##ray":9451,"gavin":9452,"advised":9453,"instructor":9454,"flooding":9455,"terrorist":9456,"##ale":9457,"teenage":9458,"interim":9459,"senses":9460,"duck":9461,"teen":9462,"thesis":9463,"abby":9464,"eager":9465,"overcome":9466,"##ile":9467,"newport":9468,"glenn":9469,"rises":9470,"shame":9471,"##cc":9472,"prompted":9473,"priority":9474,"forgot":9475,"bomber":9476,"nicolas":9477,"protective":9478,"360":9479,"cartoon":9480,"katherine":9481,"breeze":9482,"lonely":9483,"trusted":9484,"henderson":9485,"richardson":9486,"relax":9487,"banner":9488,"candy":9489,"palms":9490,"remarkable":9491,"##rio":9492,"legends":9493,"cricketer":9494,"essay":9495,"ordained":9496,"edmund":9497,"rifles":9498,"trigger":9499,"##uri":9500,"##away":9501,"sail":9502,"alert":9503,"1830":9504,"audiences":9505,"penn":9506,"sussex":9507,"siblings":9508,"pursued":9509,"indianapolis":9510,"resist":9511,"rosa":9512,"consequence":9513,"succeed":9514,"avoided":9515,"1845":9516,"##ulation":9517,"inland":9518,"##tie":9519,"##nna":9520,"counsel":9521,"profession":9522,"chronicle":9523,"hurried":9524,"##una":9525,"eyebrow":9526,"eventual":9527,"bleeding":9528,"innovative":9529,"cure":9530,"##dom":9531,"committees":9532,"accounting":9533,"con":9534,"scope":9535,"hardy":9536,"heather":9537,"tenor":9538,"gut":9539,"herald":9540,"codes":9541,"tore":9542,"scales":9543,"wagon":9544,"##oo":9545,"luxury":9546,"tin":9547,"prefer":9548,"fountain":9549,"triangle":9550,"bonds":9551,"darling":9552,"convoy":9553,"dried":9554,"traced":9555,"beings":9556,"troy":9557,"accidentally":9558,"slam":9559,"findings":9560,"smelled":9561,"joey":9562,"lawyers":9563,"outcome":9564,"steep":9565,"bosnia":9566,"configuration":9567,"shifting":9568,"toll":9569,"brook":9570,"performers":9571,"lobby":9572,"philosophical":9573,"construct":9574,"shrine":9575,"aggregate":9576,"boot":9577,"cox":9578,"phenomenon":9579,"savage":9580,"insane":9581,"solely":9582,"reynolds":9583,"lifestyle":9584,"##ima":9585,"nationally":9586,"holdings":9587,"consideration":9588,"enable":9589,"edgar":9590,"mo":9591,"mama":9592,"##tein":9593,"fights":9594,"relegation":9595,"chances":9596,"atomic":9597,"hub":9598,"conjunction":9599,"awkward":9600,"reactions":9601,"currency":9602,"finale":9603,"kumar":9604,"underwent":9605,"steering":9606,"elaborate":9607,"gifts":9608,"comprising":9609,"melissa":9610,"veins":9611,"reasonable":9612,"sunshine":9613,"chi":9614,"solve":9615,"trails":9616,"inhabited":9617,"elimination":9618,"ethics":9619,"huh":9620,"ana":9621,"molly":9622,"consent":9623,"apartments":9624,"layout":9625,"marines":9626,"##ces":9627,"hunters":9628,"bulk":9629,"##oma":9630,"hometown":9631,"##wall":9632,"##mont":9633,"cracked":9634,"reads":9635,"neighbouring":9636,"withdrawn":9637,"admission":9638,"wingspan":9639,"damned":9640,"anthology":9641,"lancashire":9642,"brands":9643,"batting":9644,"forgive":9645,"cuban":9646,"awful":9647,"##lyn":9648,"104":9649,"dimensions":9650,"imagination":9651,"##ade":9652,"dante":9653,"##ship":9654,"tracking":9655,"desperately":9656,"goalkeeper":9657,"##yne":9658,"groaned":9659,"workshops":9660,"confident":9661,"burton":9662,"gerald":9663,"milton":9664,"circus":9665,"uncertain":9666,"slope":9667,"copenhagen":9668,"sophia":9669,"fog":9670,"philosopher":9671,"portraits":9672,"accent":9673,"cycling":9674,"varying":9675,"gripped":9676,"larvae":9677,"garrett":9678,"specified":9679,"scotia":9680,"mature":9681,"luther":9682,"kurt":9683,"rap":9684,"##kes":9685,"aerial":9686,"750":9687,"ferdinand":9688,"heated":9689,"es":9690,"transported":9691,"##shan":9692,"safely":9693,"nonetheless":9694,"##orn":9695,"##gal":9696,"motors":9697,"demanding":9698,"##sburg":9699,"startled":9700,"##brook":9701,"ally":9702,"generate":9703,"caps":9704,"ghana":9705,"stained":9706,"demo":9707,"mentions":9708,"beds":9709,"ap":9710,"afterward":9711,"diary":9712,"##bling":9713,"utility":9714,"##iro":9715,"richards":9716,"1837":9717,"conspiracy":9718,"conscious":9719,"shining":9720,"footsteps":9721,"observer":9722,"cyprus":9723,"urged":9724,"loyalty":9725,"developer":9726,"probability":9727,"olive":9728,"upgraded":9729,"gym":9730,"miracle":9731,"insects":9732,"graves":9733,"1844":9734,"ourselves":9735,"hydrogen":9736,"amazon":9737,"katie":9738,"tickets":9739,"poets":9740,"##pm":9741,"planes":9742,"##pan":9743,"prevention":9744,"witnessed":9745,"dense":9746,"jin":9747,"randy":9748,"tang":9749,"warehouse":9750,"monroe":9751,"bang":9752,"archived":9753,"elderly":9754,"investigations":9755,"alec":9756,"granite":9757,"mineral":9758,"conflicts":9759,"controlling":9760,"aboriginal":9761,"carlo":9762,"##zu":9763,"mechanics":9764,"stan":9765,"stark":9766,"rhode":9767,"skirt":9768,"est":9769,"##berry":9770,"bombs":9771,"respected":9772,"##horn":9773,"imposed":9774,"limestone":9775,"deny":9776,"nominee":9777,"memphis":9778,"grabbing":9779,"disabled":9780,"##als":9781,"amusement":9782,"aa":9783,"frankfurt":9784,"corn":9785,"referendum":9786,"varies":9787,"slowed":9788,"disk":9789,"firms":9790,"unconscious":9791,"incredible":9792,"clue":9793,"sue":9794,"##zhou":9795,"twist":9796,"##cio":9797,"joins":9798,"idaho":9799,"chad":9800,"developers":9801,"computing":9802,"destroyer":9803,"103":9804,"mortal":9805,"tucker":9806,"kingston":9807,"choices":9808,"yu":9809,"carson":9810,"1800":9811,"os":9812,"whitney":9813,"geneva":9814,"pretend":9815,"dimension":9816,"staged":9817,"plateau":9818,"maya":9819,"##une":9820,"freestyle":9821,"##bc":9822,"rovers":9823,"hiv":9824,"##ids":9825,"tristan":9826,"classroom":9827,"prospect":9828,"##hus":9829,"honestly":9830,"diploma":9831,"lied":9832,"thermal":9833,"auxiliary":9834,"feast":9835,"unlikely":9836,"iata":9837,"##tel":9838,"morocco":9839,"pounding":9840,"treasury":9841,"lithuania":9842,"considerably":9843,"1841":9844,"dish":9845,"1812":9846,"geological":9847,"matching":9848,"stumbled":9849,"destroying":9850,"marched":9851,"brien":9852,"advances":9853,"cake":9854,"nicole":9855,"belle":9856,"settling":9857,"measuring":9858,"directing":9859,"##mie":9860,"tuesday":9861,"bassist":9862,"capabilities":9863,"stunned":9864,"fraud":9865,"torpedo":9866,"##list":9867,"##phone":9868,"anton":9869,"wisdom":9870,"surveillance":9871,"ruined":9872,"##ulate":9873,"lawsuit":9874,"healthcare":9875,"theorem":9876,"halls":9877,"trend":9878,"aka":9879,"horizontal":9880,"dozens":9881,"acquire":9882,"lasting":9883,"swim":9884,"hawk":9885,"gorgeous":9886,"fees":9887,"vicinity":9888,"decrease":9889,"adoption":9890,"tactics":9891,"##ography":9892,"pakistani":9893,"##ole":9894,"draws":9895,"##hall":9896,"willie":9897,"burke":9898,"heath":9899,"algorithm":9900,"integral":9901,"powder":9902,"elliott":9903,"brigadier":9904,"jackie":9905,"tate":9906,"varieties":9907,"darker":9908,"##cho":9909,"lately":9910,"cigarette":9911,"specimens":9912,"adds":9913,"##ree":9914,"##ensis":9915,"##inger":9916,"exploded":9917,"finalist":9918,"cia":9919,"murders":9920,"wilderness":9921,"arguments":9922,"nicknamed":9923,"acceptance":9924,"onwards":9925,"manufacture":9926,"robertson":9927,"jets":9928,"tampa":9929,"enterprises":9930,"blog":9931,"loudly":9932,"composers":9933,"nominations":9934,"1838":9935,"ai":9936,"malta":9937,"inquiry":9938,"automobile":9939,"hosting":9940,"viii":9941,"rays":9942,"tilted":9943,"grief":9944,"museums":9945,"strategies":9946,"furious":9947,"euro":9948,"equality":9949,"cohen":9950,"poison":9951,"surrey":9952,"wireless":9953,"governed":9954,"ridiculous":9955,"moses":9956,"##esh":9957,"##room":9958,"vanished":9959,"##ito":9960,"barnes":9961,"attract":9962,"morrison":9963,"istanbul":9964,"##iness":9965,"absent":9966,"rotation":9967,"petition":9968,"janet":9969,"##logical":9970,"satisfaction":9971,"custody":9972,"deliberately":9973,"observatory":9974,"comedian":9975,"surfaces":9976,"pinyin":9977,"novelist":9978,"strictly":9979,"canterbury":9980,"oslo":9981,"monks":9982,"embrace":9983,"ibm":9984,"jealous":9985,"photograph":9986,"continent":9987,"dorothy":9988,"marina":9989,"doc":9990,"excess":9991,"holden":9992,"allegations":9993,"explaining":9994,"stack":9995,"avoiding":9996,"lance":9997,"storyline":9998,"majesty":9999,"poorly":10000,"spike":10001,"dos":10002,"bradford":10003,"raven":10004,"travis":10005,"classics":10006,"proven":10007,"voltage":10008,"pillow":10009,"fists":10010,"butt":10011,"1842":10012,"interpreted":10013,"##car":10014,"1839":10015,"gage":10016,"telegraph":10017,"lens":10018,"promising":10019,"expelled":10020,"casual":10021,"collector":10022,"zones":10023,"##min":10024,"silly":10025,"nintendo":10026,"##kh":10027,"##bra":10028,"downstairs":10029,"chef":10030,"suspicious":10031,"afl":10032,"flies":10033,"vacant":10034,"uganda":10035,"pregnancy":10036,"condemned":10037,"lutheran":10038,"estimates":10039,"cheap":10040,"decree":10041,"saxon":10042,"proximity":10043,"stripped":10044,"idiot":10045,"deposits":10046,"contrary":10047,"presenter":10048,"magnus":10049,"glacier":10050,"im":10051,"offense":10052,"edwin":10053,"##ori":10054,"upright":10055,"##long":10056,"bolt":10057,"##ois":10058,"toss":10059,"geographical":10060,"##izes":10061,"environments":10062,"delicate":10063,"marking":10064,"abstract":10065,"xavier":10066,"nails":10067,"windsor":10068,"plantation":10069,"occurring":10070,"equity":10071,"saskatchewan":10072,"fears":10073,"drifted":10074,"sequences":10075,"vegetation":10076,"revolt":10077,"##stic":10078,"1843":10079,"sooner":10080,"fusion":10081,"opposing":10082,"nato":10083,"skating":10084,"1836":10085,"secretly":10086,"ruin":10087,"lease":10088,"##oc":10089,"edit":10090,"##nne":10091,"flora":10092,"anxiety":10093,"ruby":10094,"##ological":10095,"##mia":10096,"tel":10097,"bout":10098,"taxi":10099,"emmy":10100,"frost":10101,"rainbow":10102,"compounds":10103,"foundations":10104,"rainfall":10105,"assassination":10106,"nightmare":10107,"dominican":10108,"##win":10109,"achievements":10110,"deserve":10111,"orlando":10112,"intact":10113,"armenia":10114,"##nte":10115,"calgary":10116,"valentine":10117,"106":10118,"marion":10119,"proclaimed":10120,"theodore":10121,"bells":10122,"courtyard":10123,"thigh":10124,"gonzalez":10125,"console":10126,"troop":10127,"minimal":10128,"monte":10129,"everyday":10130,"##ence":10131,"##if":10132,"supporter":10133,"terrorism":10134,"buck":10135,"openly":10136,"presbyterian":10137,"activists":10138,"carpet":10139,"##iers":10140,"rubbing":10141,"uprising":10142,"##yi":10143,"cute":10144,"conceived":10145,"legally":10146,"##cht":10147,"millennium":10148,"cello":10149,"velocity":10150,"ji":10151,"rescued":10152,"cardiff":10153,"1835":10154,"rex":10155,"concentrate":10156,"senators":10157,"beard":10158,"rendered":10159,"glowing":10160,"battalions":10161,"scouts":10162,"competitors":10163,"sculptor":10164,"catalogue":10165,"arctic":10166,"ion":10167,"raja":10168,"bicycle":10169,"wow":10170,"glancing":10171,"lawn":10172,"##woman":10173,"gentleman":10174,"lighthouse":10175,"publish":10176,"predicted":10177,"calculated":10178,"##val":10179,"variants":10180,"##gne":10181,"strain":10182,"##ui":10183,"winston":10184,"deceased":10185,"##nus":10186,"touchdowns":10187,"brady":10188,"caleb":10189,"sinking":10190,"echoed":10191,"crush":10192,"hon":10193,"blessed":10194,"protagonist":10195,"hayes":10196,"endangered":10197,"magnitude":10198,"editors":10199,"##tine":10200,"estimate":10201,"responsibilities":10202,"##mel":10203,"backup":10204,"laying":10205,"consumed":10206,"sealed":10207,"zurich":10208,"lovers":10209,"frustrated":10210,"##eau":10211,"ahmed":10212,"kicking":10213,"mit":10214,"treasurer":10215,"1832":10216,"biblical":10217,"refuse":10218,"terrified":10219,"pump":10220,"agrees":10221,"genuine":10222,"imprisonment":10223,"refuses":10224,"plymouth":10225,"##hen":10226,"lou":10227,"##nen":10228,"tara":10229,"trembling":10230,"antarctic":10231,"ton":10232,"learns":10233,"##tas":10234,"crap":10235,"crucial":10236,"faction":10237,"atop":10238,"##borough":10239,"wrap":10240,"lancaster":10241,"odds":10242,"hopkins":10243,"erik":10244,"lyon":10245,"##eon":10246,"bros":10247,"##ode":10248,"snap":10249,"locality":10250,"tips":10251,"empress":10252,"crowned":10253,"cal":10254,"acclaimed":10255,"chuckled":10256,"##ory":10257,"clara":10258,"sends":10259,"mild":10260,"towel":10261,"##fl":10262,"##day":10263,"##а":10264,"wishing":10265,"assuming":10266,"interviewed":10267,"##bal":10268,"##die":10269,"interactions":10270,"eden":10271,"cups":10272,"helena":10273,"##lf":10274,"indie":10275,"beck":10276,"##fire":10277,"batteries":10278,"filipino":10279,"wizard":10280,"parted":10281,"##lam":10282,"traces":10283,"##born":10284,"rows":10285,"idol":10286,"albany":10287,"delegates":10288,"##ees":10289,"##sar":10290,"discussions":10291,"##ex":10292,"notre":10293,"instructed":10294,"belgrade":10295,"highways":10296,"suggestion":10297,"lauren":10298,"possess":10299,"orientation":10300,"alexandria":10301,"abdul":10302,"beats":10303,"salary":10304,"reunion":10305,"ludwig":10306,"alright":10307,"wagner":10308,"intimate":10309,"pockets":10310,"slovenia":10311,"hugged":10312,"brighton":10313,"merchants":10314,"cruel":10315,"stole":10316,"trek":10317,"slopes":10318,"repairs":10319,"enrollment":10320,"politically":10321,"underlying":10322,"promotional":10323,"counting":10324,"boeing":10325,"##bb":10326,"isabella":10327,"naming":10328,"##и":10329,"keen":10330,"bacteria":10331,"listing":10332,"separately":10333,"belfast":10334,"ussr":10335,"450":10336,"lithuanian":10337,"anybody":10338,"ribs":10339,"sphere":10340,"martinez":10341,"cock":10342,"embarrassed":10343,"proposals":10344,"fragments":10345,"nationals":10346,"##fs":10347,"##wski":10348,"premises":10349,"fin":10350,"1500":10351,"alpine":10352,"matched":10353,"freely":10354,"bounded":10355,"jace":10356,"sleeve":10357,"##af":10358,"gaming":10359,"pier":10360,"populated":10361,"evident":10362,"##like":10363,"frances":10364,"flooded":10365,"##dle":10366,"frightened":10367,"pour":10368,"trainer":10369,"framed":10370,"visitor":10371,"challenging":10372,"pig":10373,"wickets":10374,"##fold":10375,"infected":10376,"email":10377,"##pes":10378,"arose":10379,"##aw":10380,"reward":10381,"ecuador":10382,"oblast":10383,"vale":10384,"ch":10385,"shuttle":10386,"##usa":10387,"bach":10388,"rankings":10389,"forbidden":10390,"cornwall":10391,"accordance":10392,"salem":10393,"consumers":10394,"bruno":10395,"fantastic":10396,"toes":10397,"machinery":10398,"resolved":10399,"julius":10400,"remembering":10401,"propaganda":10402,"iceland":10403,"bombardment":10404,"tide":10405,"contacts":10406,"wives":10407,"##rah":10408,"concerto":10409,"macdonald":10410,"albania":10411,"implement":10412,"daisy":10413,"tapped":10414,"sudan":10415,"helmet":10416,"angela":10417,"mistress":10418,"##lic":10419,"crop":10420,"sunk":10421,"finest":10422,"##craft":10423,"hostile":10424,"##ute":10425,"##tsu":10426,"boxer":10427,"fr":10428,"paths":10429,"adjusted":10430,"habit":10431,"ballot":10432,"supervision":10433,"soprano":10434,"##zen":10435,"bullets":10436,"wicked":10437,"sunset":10438,"regiments":10439,"disappear":10440,"lamp":10441,"performs":10442,"app":10443,"##gia":10444,"##oa":10445,"rabbit":10446,"digging":10447,"incidents":10448,"entries":10449,"##cion":10450,"dishes":10451,"##oi":10452,"introducing":10453,"##ati":10454,"##fied":10455,"freshman":10456,"slot":10457,"jill":10458,"tackles":10459,"baroque":10460,"backs":10461,"##iest":10462,"lone":10463,"sponsor":10464,"destiny":10465,"altogether":10466,"convert":10467,"##aro":10468,"consensus":10469,"shapes":10470,"demonstration":10471,"basically":10472,"feminist":10473,"auction":10474,"artifacts":10475,"##bing":10476,"strongest":10477,"twitter":10478,"halifax":10479,"2019":10480,"allmusic":10481,"mighty":10482,"smallest":10483,"precise":10484,"alexandra":10485,"viola":10486,"##los":10487,"##ille":10488,"manuscripts":10489,"##illo":10490,"dancers":10491,"ari":10492,"managers":10493,"monuments":10494,"blades":10495,"barracks":10496,"springfield":10497,"maiden":10498,"consolidated":10499,"electron":10500,"##end":10501,"berry":10502,"airing":10503,"wheat":10504,"nobel":10505,"inclusion":10506,"blair":10507,"payments":10508,"geography":10509,"bee":10510,"cc":10511,"eleanor":10512,"react":10513,"##hurst":10514,"afc":10515,"manitoba":10516,"##yu":10517,"su":10518,"lineup":10519,"fitness":10520,"recreational":10521,"investments":10522,"airborne":10523,"disappointment":10524,"##dis":10525,"edmonton":10526,"viewing":10527,"##row":10528,"renovation":10529,"##cast":10530,"infant":10531,"bankruptcy":10532,"roses":10533,"aftermath":10534,"pavilion":10535,"##yer":10536,"carpenter":10537,"withdrawal":10538,"ladder":10539,"##hy":10540,"discussing":10541,"popped":10542,"reliable":10543,"agreements":10544,"rochester":10545,"##abad":10546,"curves":10547,"bombers":10548,"220":10549,"rao":10550,"reverend":10551,"decreased":10552,"choosing":10553,"107":10554,"stiff":10555,"consulting":10556,"naples":10557,"crawford":10558,"tracy":10559,"ka":10560,"ribbon":10561,"cops":10562,"##lee":10563,"crushed":10564,"deciding":10565,"unified":10566,"teenager":10567,"accepting":10568,"flagship":10569,"explorer":10570,"poles":10571,"sanchez":10572,"inspection":10573,"revived":10574,"skilled":10575,"induced":10576,"exchanged":10577,"flee":10578,"locals":10579,"tragedy":10580,"swallow":10581,"loading":10582,"hanna":10583,"demonstrate":10584,"##ela":10585,"salvador":10586,"flown":10587,"contestants":10588,"civilization":10589,"##ines":10590,"wanna":10591,"rhodes":10592,"fletcher":10593,"hector":10594,"knocking":10595,"considers":10596,"##ough":10597,"nash":10598,"mechanisms":10599,"sensed":10600,"mentally":10601,"walt":10602,"unclear":10603,"##eus":10604,"renovated":10605,"madame":10606,"##cks":10607,"crews":10608,"governmental":10609,"##hin":10610,"undertaken":10611,"monkey":10612,"##ben":10613,"##ato":10614,"fatal":10615,"armored":10616,"copa":10617,"caves":10618,"governance":10619,"grasp":10620,"perception":10621,"certification":10622,"froze":10623,"damp":10624,"tugged":10625,"wyoming":10626,"##rg":10627,"##ero":10628,"newman":10629,"##lor":10630,"nerves":10631,"curiosity":10632,"graph":10633,"115":10634,"##ami":10635,"withdraw":10636,"tunnels":10637,"dull":10638,"meredith":10639,"moss":10640,"exhibits":10641,"neighbors":10642,"communicate":10643,"accuracy":10644,"explored":10645,"raiders":10646,"republicans":10647,"secular":10648,"kat":10649,"superman":10650,"penny":10651,"criticised":10652,"##tch":10653,"freed":10654,"update":10655,"conviction":10656,"wade":10657,"ham":10658,"likewise":10659,"delegation":10660,"gotta":10661,"doll":10662,"promises":10663,"technological":10664,"myth":10665,"nationality":10666,"resolve":10667,"convent":10668,"##mark":10669,"sharon":10670,"dig":10671,"sip":10672,"coordinator":10673,"entrepreneur":10674,"fold":10675,"##dine":10676,"capability":10677,"councillor":10678,"synonym":10679,"blown":10680,"swan":10681,"cursed":10682,"1815":10683,"jonas":10684,"haired":10685,"sofa":10686,"canvas":10687,"keeper":10688,"rivalry":10689,"##hart":10690,"rapper":10691,"speedway":10692,"swords":10693,"postal":10694,"maxwell":10695,"estonia":10696,"potter":10697,"recurring":10698,"##nn":10699,"##ave":10700,"errors":10701,"##oni":10702,"cognitive":10703,"1834":10704,"##²":10705,"claws":10706,"nadu":10707,"roberto":10708,"bce":10709,"wrestler":10710,"ellie":10711,"##ations":10712,"infinite":10713,"ink":10714,"##tia":10715,"presumably":10716,"finite":10717,"staircase":10718,"108":10719,"noel":10720,"patricia":10721,"nacional":10722,"##cation":10723,"chill":10724,"eternal":10725,"tu":10726,"preventing":10727,"prussia":10728,"fossil":10729,"limbs":10730,"##logist":10731,"ernst":10732,"frog":10733,"perez":10734,"rene":10735,"##ace":10736,"pizza":10737,"prussian":10738,"##ios":10739,"##vy":10740,"molecules":10741,"regulatory":10742,"answering":10743,"opinions":10744,"sworn":10745,"lengths":10746,"supposedly":10747,"hypothesis":10748,"upward":10749,"habitats":10750,"seating":10751,"ancestors":10752,"drank":10753,"yield":10754,"hd":10755,"synthesis":10756,"researcher":10757,"modest":10758,"##var":10759,"mothers":10760,"peered":10761,"voluntary":10762,"homeland":10763,"##the":10764,"acclaim":10765,"##igan":10766,"static":10767,"valve":10768,"luxembourg":10769,"alto":10770,"carroll":10771,"fe":10772,"receptor":10773,"norton":10774,"ambulance":10775,"##tian":10776,"johnston":10777,"catholics":10778,"depicting":10779,"jointly":10780,"elephant":10781,"gloria":10782,"mentor":10783,"badge":10784,"ahmad":10785,"distinguish":10786,"remarked":10787,"councils":10788,"precisely":10789,"allison":10790,"advancing":10791,"detection":10792,"crowded":10793,"##10":10794,"cooperative":10795,"ankle":10796,"mercedes":10797,"dagger":10798,"surrendered":10799,"pollution":10800,"commit":10801,"subway":10802,"jeffrey":10803,"lesson":10804,"sculptures":10805,"provider":10806,"##fication":10807,"membrane":10808,"timothy":10809,"rectangular":10810,"fiscal":10811,"heating":10812,"teammate":10813,"basket":10814,"particle":10815,"anonymous":10816,"deployment":10817,"##ple":10818,"missiles":10819,"courthouse":10820,"proportion":10821,"shoe":10822,"sec":10823,"##ller":10824,"complaints":10825,"forbes":10826,"blacks":10827,"abandon":10828,"remind":10829,"sizes":10830,"overwhelming":10831,"autobiography":10832,"natalie":10833,"##awa":10834,"risks":10835,"contestant":10836,"countryside":10837,"babies":10838,"scorer":10839,"invaded":10840,"enclosed":10841,"proceed":10842,"hurling":10843,"disorders":10844,"##cu":10845,"reflecting":10846,"continuously":10847,"cruiser":10848,"graduates":10849,"freeway":10850,"investigated":10851,"ore":10852,"deserved":10853,"maid":10854,"blocking":10855,"phillip":10856,"jorge":10857,"shakes":10858,"dove":10859,"mann":10860,"variables":10861,"lacked":10862,"burden":10863,"accompanying":10864,"que":10865,"consistently":10866,"organizing":10867,"provisional":10868,"complained":10869,"endless":10870,"##rm":10871,"tubes":10872,"juice":10873,"georges":10874,"krishna":10875,"mick":10876,"labels":10877,"thriller":10878,"##uch":10879,"laps":10880,"arcade":10881,"sage":10882,"snail":10883,"##table":10884,"shannon":10885,"fi":10886,"laurence":10887,"seoul":10888,"vacation":10889,"presenting":10890,"hire":10891,"churchill":10892,"surprisingly":10893,"prohibited":10894,"savannah":10895,"technically":10896,"##oli":10897,"170":10898,"##lessly":10899,"testimony":10900,"suited":10901,"speeds":10902,"toys":10903,"romans":10904,"mlb":10905,"flowering":10906,"measurement":10907,"talented":10908,"kay":10909,"settings":10910,"charleston":10911,"expectations":10912,"shattered":10913,"achieving":10914,"triumph":10915,"ceremonies":10916,"portsmouth":10917,"lanes":10918,"mandatory":10919,"loser":10920,"stretching":10921,"cologne":10922,"realizes":10923,"seventy":10924,"cornell":10925,"careers":10926,"webb":10927,"##ulating":10928,"americas":10929,"budapest":10930,"ava":10931,"suspicion":10932,"##ison":10933,"yo":10934,"conrad":10935,"##hai":10936,"sterling":10937,"jessie":10938,"rector":10939,"##az":10940,"1831":10941,"transform":10942,"organize":10943,"loans":10944,"christine":10945,"volcanic":10946,"warrant":10947,"slender":10948,"summers":10949,"subfamily":10950,"newer":10951,"danced":10952,"dynamics":10953,"rhine":10954,"proceeds":10955,"heinrich":10956,"gastropod":10957,"commands":10958,"sings":10959,"facilitate":10960,"easter":10961,"ra":10962,"positioned":10963,"responses":10964,"expense":10965,"fruits":10966,"yanked":10967,"imported":10968,"25th":10969,"velvet":10970,"vic":10971,"primitive":10972,"tribune":10973,"baldwin":10974,"neighbourhood":10975,"donna":10976,"rip":10977,"hay":10978,"pr":10979,"##uro":10980,"1814":10981,"espn":10982,"welcomed":10983,"##aria":10984,"qualifier":10985,"glare":10986,"highland":10987,"timing":10988,"##cted":10989,"shells":10990,"eased":10991,"geometry":10992,"louder":10993,"exciting":10994,"slovakia":10995,"##sion":10996,"##iz":10997,"##lot":10998,"savings":10999,"prairie":11000,"##ques":11001,"marching":11002,"rafael":11003,"tonnes":11004,"##lled":11005,"curtain":11006,"preceding":11007,"shy":11008,"heal":11009,"greene":11010,"worthy":11011,"##pot":11012,"detachment":11013,"bury":11014,"sherman":11015,"##eck":11016,"reinforced":11017,"seeks":11018,"bottles":11019,"contracted":11020,"duchess":11021,"outfit":11022,"walsh":11023,"##sc":11024,"mickey":11025,"##ase":11026,"geoffrey":11027,"archer":11028,"squeeze":11029,"dawson":11030,"eliminate":11031,"invention":11032,"##enberg":11033,"neal":11034,"##eth":11035,"stance":11036,"dealer":11037,"coral":11038,"maple":11039,"retire":11040,"polo":11041,"simplified":11042,"##ht":11043,"1833":11044,"hid":11045,"watts":11046,"backwards":11047,"jules":11048,"##oke":11049,"genesis":11050,"mt":11051,"frames":11052,"rebounds":11053,"burma":11054,"woodland":11055,"moist":11056,"santos":11057,"whispers":11058,"drained":11059,"subspecies":11060,"##aa":11061,"streaming":11062,"ulster":11063,"burnt":11064,"correspondence":11065,"maternal":11066,"gerard":11067,"denis":11068,"stealing":11069,"##load":11070,"genius":11071,"duchy":11072,"##oria":11073,"inaugurated":11074,"momentum":11075,"suits":11076,"placement":11077,"sovereign":11078,"clause":11079,"thames":11080,"##hara":11081,"confederation":11082,"reservation":11083,"sketch":11084,"yankees":11085,"lets":11086,"rotten":11087,"charm":11088,"hal":11089,"verses":11090,"ultra":11091,"commercially":11092,"dot":11093,"salon":11094,"citation":11095,"adopt":11096,"winnipeg":11097,"mist":11098,"allocated":11099,"cairo":11100,"##boy":11101,"jenkins":11102,"interference":11103,"objectives":11104,"##wind":11105,"1820":11106,"portfolio":11107,"armoured":11108,"sectors":11109,"##eh":11110,"initiatives":11111,"##world":11112,"integrity":11113,"exercises":11114,"robe":11115,"tap":11116,"ab":11117,"gazed":11118,"##tones":11119,"distracted":11120,"rulers":11121,"111":11122,"favorable":11123,"jerome":11124,"tended":11125,"cart":11126,"factories":11127,"##eri":11128,"diplomat":11129,"valued":11130,"gravel":11131,"charitable":11132,"##try":11133,"calvin":11134,"exploring":11135,"chang":11136,"shepherd":11137,"terrace":11138,"pdf":11139,"pupil":11140,"##ural":11141,"reflects":11142,"ups":11143,"##rch":11144,"governors":11145,"shelf":11146,"depths":11147,"##nberg":11148,"trailed":11149,"crest":11150,"tackle":11151,"##nian":11152,"##ats":11153,"hatred":11154,"##kai":11155,"clare":11156,"makers":11157,"ethiopia":11158,"longtime":11159,"detected":11160,"embedded":11161,"lacking":11162,"slapped":11163,"rely":11164,"thomson":11165,"anticipation":11166,"iso":11167,"morton":11168,"successive":11169,"agnes":11170,"screenwriter":11171,"straightened":11172,"philippe":11173,"playwright":11174,"haunted":11175,"licence":11176,"iris":11177,"intentions":11178,"sutton":11179,"112":11180,"logical":11181,"correctly":11182,"##weight":11183,"branded":11184,"licked":11185,"tipped":11186,"silva":11187,"ricky":11188,"narrator":11189,"requests":11190,"##ents":11191,"greeted":11192,"supernatural":11193,"cow":11194,"##wald":11195,"lung":11196,"refusing":11197,"employer":11198,"strait":11199,"gaelic":11200,"liner":11201,"##piece":11202,"zoe":11203,"sabha":11204,"##mba":11205,"driveway":11206,"harvest":11207,"prints":11208,"bates":11209,"reluctantly":11210,"threshold":11211,"algebra":11212,"ira":11213,"wherever":11214,"coupled":11215,"240":11216,"assumption":11217,"picks":11218,"##air":11219,"designers":11220,"raids":11221,"gentlemen":11222,"##ean":11223,"roller":11224,"blowing":11225,"leipzig":11226,"locks":11227,"screw":11228,"dressing":11229,"strand":11230,"##lings":11231,"scar":11232,"dwarf":11233,"depicts":11234,"##nu":11235,"nods":11236,"##mine":11237,"differ":11238,"boris":11239,"##eur":11240,"yuan":11241,"flip":11242,"##gie":11243,"mob":11244,"invested":11245,"questioning":11246,"applying":11247,"##ture":11248,"shout":11249,"##sel":11250,"gameplay":11251,"blamed":11252,"illustrations":11253,"bothered":11254,"weakness":11255,"rehabilitation":11256,"##of":11257,"##zes":11258,"envelope":11259,"rumors":11260,"miners":11261,"leicester":11262,"subtle":11263,"kerry":11264,"##ico":11265,"ferguson":11266,"##fu":11267,"premiership":11268,"ne":11269,"##cat":11270,"bengali":11271,"prof":11272,"catches":11273,"remnants":11274,"dana":11275,"##rily":11276,"shouting":11277,"presidents":11278,"baltic":11279,"ought":11280,"ghosts":11281,"dances":11282,"sailors":11283,"shirley":11284,"fancy":11285,"dominic":11286,"##bie":11287,"madonna":11288,"##rick":11289,"bark":11290,"buttons":11291,"gymnasium":11292,"ashes":11293,"liver":11294,"toby":11295,"oath":11296,"providence":11297,"doyle":11298,"evangelical":11299,"nixon":11300,"cement":11301,"carnegie":11302,"embarked":11303,"hatch":11304,"surroundings":11305,"guarantee":11306,"needing":11307,"pirate":11308,"essence":11309,"##bee":11310,"filter":11311,"crane":11312,"hammond":11313,"projected":11314,"immune":11315,"percy":11316,"twelfth":11317,"##ult":11318,"regent":11319,"doctoral":11320,"damon":11321,"mikhail":11322,"##ichi":11323,"lu":11324,"critically":11325,"elect":11326,"realised":11327,"abortion":11328,"acute":11329,"screening":11330,"mythology":11331,"steadily":11332,"##fc":11333,"frown":11334,"nottingham":11335,"kirk":11336,"wa":11337,"minneapolis":11338,"##rra":11339,"module":11340,"algeria":11341,"mc":11342,"nautical":11343,"encounters":11344,"surprising":11345,"statues":11346,"availability":11347,"shirts":11348,"pie":11349,"alma":11350,"brows":11351,"munster":11352,"mack":11353,"soup":11354,"crater":11355,"tornado":11356,"sanskrit":11357,"cedar":11358,"explosive":11359,"bordered":11360,"dixon":11361,"planets":11362,"stamp":11363,"exam":11364,"happily":11365,"##bble":11366,"carriers":11367,"kidnapped":11368,"##vis":11369,"accommodation":11370,"emigrated":11371,"##met":11372,"knockout":11373,"correspondent":11374,"violation":11375,"profits":11376,"peaks":11377,"lang":11378,"specimen":11379,"agenda":11380,"ancestry":11381,"pottery":11382,"spelling":11383,"equations":11384,"obtaining":11385,"ki":11386,"linking":11387,"1825":11388,"debris":11389,"asylum":11390,"##20":11391,"buddhism":11392,"teddy":11393,"##ants":11394,"gazette":11395,"##nger":11396,"##sse":11397,"dental":11398,"eligibility":11399,"utc":11400,"fathers":11401,"averaged":11402,"zimbabwe":11403,"francesco":11404,"coloured":11405,"hissed":11406,"translator":11407,"lynch":11408,"mandate":11409,"humanities":11410,"mackenzie":11411,"uniforms":11412,"lin":11413,"##iana":11414,"##gio":11415,"asset":11416,"mhz":11417,"fitting":11418,"samantha":11419,"genera":11420,"wei":11421,"rim":11422,"beloved":11423,"shark":11424,"riot":11425,"entities":11426,"expressions":11427,"indo":11428,"carmen":11429,"slipping":11430,"owing":11431,"abbot":11432,"neighbor":11433,"sidney":11434,"##av":11435,"rats":11436,"recommendations":11437,"encouraging":11438,"squadrons":11439,"anticipated":11440,"commanders":11441,"conquered":11442,"##oto":11443,"donations":11444,"diagnosed":11445,"##mond":11446,"divide":11447,"##iva":11448,"guessed":11449,"decoration":11450,"vernon":11451,"auditorium":11452,"revelation":11453,"conversations":11454,"##kers":11455,"##power":11456,"herzegovina":11457,"dash":11458,"alike":11459,"protested":11460,"lateral":11461,"herman":11462,"accredited":11463,"mg":11464,"##gent":11465,"freeman":11466,"mel":11467,"fiji":11468,"crow":11469,"crimson":11470,"##rine":11471,"livestock":11472,"##pped":11473,"humanitarian":11474,"bored":11475,"oz":11476,"whip":11477,"##lene":11478,"##ali":11479,"legitimate":11480,"alter":11481,"grinning":11482,"spelled":11483,"anxious":11484,"oriental":11485,"wesley":11486,"##nin":11487,"##hole":11488,"carnival":11489,"controller":11490,"detect":11491,"##ssa":11492,"bowed":11493,"educator":11494,"kosovo":11495,"macedonia":11496,"##sin":11497,"occupy":11498,"mastering":11499,"stephanie":11500,"janeiro":11501,"para":11502,"unaware":11503,"nurses":11504,"noon":11505,"135":11506,"cam":11507,"hopefully":11508,"ranger":11509,"combine":11510,"sociology":11511,"polar":11512,"rica":11513,"##eer":11514,"neill":11515,"##sman":11516,"holocaust":11517,"##ip":11518,"doubled":11519,"lust":11520,"1828":11521,"109":11522,"decent":11523,"cooling":11524,"unveiled":11525,"##card":11526,"1829":11527,"nsw":11528,"homer":11529,"chapman":11530,"meyer":11531,"##gin":11532,"dive":11533,"mae":11534,"reagan":11535,"expertise":11536,"##gled":11537,"darwin":11538,"brooke":11539,"sided":11540,"prosecution":11541,"investigating":11542,"comprised":11543,"petroleum":11544,"genres":11545,"reluctant":11546,"differently":11547,"trilogy":11548,"johns":11549,"vegetables":11550,"corpse":11551,"highlighted":11552,"lounge":11553,"pension":11554,"unsuccessfully":11555,"elegant":11556,"aided":11557,"ivory":11558,"beatles":11559,"amelia":11560,"cain":11561,"dubai":11562,"sunny":11563,"immigrant":11564,"babe":11565,"click":11566,"##nder":11567,"underwater":11568,"pepper":11569,"combining":11570,"mumbled":11571,"atlas":11572,"horns":11573,"accessed":11574,"ballad":11575,"physicians":11576,"homeless":11577,"gestured":11578,"rpm":11579,"freak":11580,"louisville":11581,"corporations":11582,"patriots":11583,"prizes":11584,"rational":11585,"warn":11586,"modes":11587,"decorative":11588,"overnight":11589,"din":11590,"troubled":11591,"phantom":11592,"##ort":11593,"monarch":11594,"sheer":11595,"##dorf":11596,"generals":11597,"guidelines":11598,"organs":11599,"addresses":11600,"##zon":11601,"enhance":11602,"curling":11603,"parishes":11604,"cord":11605,"##kie":11606,"linux":11607,"caesar":11608,"deutsche":11609,"bavaria":11610,"##bia":11611,"coleman":11612,"cyclone":11613,"##eria":11614,"bacon":11615,"petty":11616,"##yama":11617,"##old":11618,"hampton":11619,"diagnosis":11620,"1824":11621,"throws":11622,"complexity":11623,"rita":11624,"disputed":11625,"##₃":11626,"pablo":11627,"##sch":11628,"marketed":11629,"trafficking":11630,"##ulus":11631,"examine":11632,"plague":11633,"formats":11634,"##oh":11635,"vault":11636,"faithful":11637,"##bourne":11638,"webster":11639,"##ox":11640,"highlights":11641,"##ient":11642,"##ann":11643,"phones":11644,"vacuum":11645,"sandwich":11646,"modeling":11647,"##gated":11648,"bolivia":11649,"clergy":11650,"qualities":11651,"isabel":11652,"##nas":11653,"##ars":11654,"wears":11655,"screams":11656,"reunited":11657,"annoyed":11658,"bra":11659,"##ancy":11660,"##rate":11661,"differential":11662,"transmitter":11663,"tattoo":11664,"container":11665,"poker":11666,"##och":11667,"excessive":11668,"resides":11669,"cowboys":11670,"##tum":11671,"augustus":11672,"trash":11673,"providers":11674,"statute":11675,"retreated":11676,"balcony":11677,"reversed":11678,"void":11679,"storey":11680,"preceded":11681,"masses":11682,"leap":11683,"laughs":11684,"neighborhoods":11685,"wards":11686,"schemes":11687,"falcon":11688,"santo":11689,"battlefield":11690,"pad":11691,"ronnie":11692,"thread":11693,"lesbian":11694,"venus":11695,"##dian":11696,"beg":11697,"sandstone":11698,"daylight":11699,"punched":11700,"gwen":11701,"analog":11702,"stroked":11703,"wwe":11704,"acceptable":11705,"measurements":11706,"dec":11707,"toxic":11708,"##kel":11709,"adequate":11710,"surgical":11711,"economist":11712,"parameters":11713,"varsity":11714,"##sberg":11715,"quantity":11716,"ella":11717,"##chy":11718,"##rton":11719,"countess":11720,"generating":11721,"precision":11722,"diamonds":11723,"expressway":11724,"ga":11725,"##ı":11726,"1821":11727,"uruguay":11728,"talents":11729,"galleries":11730,"expenses":11731,"scanned":11732,"colleague":11733,"outlets":11734,"ryder":11735,"lucien":11736,"##ila":11737,"paramount":11738,"##bon":11739,"syracuse":11740,"dim":11741,"fangs":11742,"gown":11743,"sweep":11744,"##sie":11745,"toyota":11746,"missionaries":11747,"websites":11748,"##nsis":11749,"sentences":11750,"adviser":11751,"val":11752,"trademark":11753,"spells":11754,"##plane":11755,"patience":11756,"starter":11757,"slim":11758,"##borg":11759,"toe":11760,"incredibly":11761,"shoots":11762,"elliot":11763,"nobility":11764,"##wyn":11765,"cowboy":11766,"endorsed":11767,"gardner":11768,"tendency":11769,"persuaded":11770,"organisms":11771,"emissions":11772,"kazakhstan":11773,"amused":11774,"boring":11775,"chips":11776,"themed":11777,"##hand":11778,"llc":11779,"constantinople":11780,"chasing":11781,"systematic":11782,"guatemala":11783,"borrowed":11784,"erin":11785,"carey":11786,"##hard":11787,"highlands":11788,"struggles":11789,"1810":11790,"##ifying":11791,"##ced":11792,"wong":11793,"exceptions":11794,"develops":11795,"enlarged":11796,"kindergarten":11797,"castro":11798,"##ern":11799,"##rina":11800,"leigh":11801,"zombie":11802,"juvenile":11803,"##most":11804,"consul":11805,"##nar":11806,"sailor":11807,"hyde":11808,"clarence":11809,"intensive":11810,"pinned":11811,"nasty":11812,"useless":11813,"jung":11814,"clayton":11815,"stuffed":11816,"exceptional":11817,"ix":11818,"apostolic":11819,"230":11820,"transactions":11821,"##dge":11822,"exempt":11823,"swinging":11824,"cove":11825,"religions":11826,"##ash":11827,"shields":11828,"dairy":11829,"bypass":11830,"190":11831,"pursuing":11832,"bug":11833,"joyce":11834,"bombay":11835,"chassis":11836,"southampton":11837,"chat":11838,"interact":11839,"redesignated":11840,"##pen":11841,"nascar":11842,"pray":11843,"salmon":11844,"rigid":11845,"regained":11846,"malaysian":11847,"grim":11848,"publicity":11849,"constituted":11850,"capturing":11851,"toilet":11852,"delegate":11853,"purely":11854,"tray":11855,"drift":11856,"loosely":11857,"striker":11858,"weakened":11859,"trinidad":11860,"mitch":11861,"itv":11862,"defines":11863,"transmitted":11864,"ming":11865,"scarlet":11866,"nodding":11867,"fitzgerald":11868,"fu":11869,"narrowly":11870,"sp":11871,"tooth":11872,"standings":11873,"virtue":11874,"##₁":11875,"##wara":11876,"##cting":11877,"chateau":11878,"gloves":11879,"lid":11880,"##nel":11881,"hurting":11882,"conservatory":11883,"##pel":11884,"sinclair":11885,"reopened":11886,"sympathy":11887,"nigerian":11888,"strode":11889,"advocated":11890,"optional":11891,"chronic":11892,"discharge":11893,"##rc":11894,"suck":11895,"compatible":11896,"laurel":11897,"stella":11898,"shi":11899,"fails":11900,"wage":11901,"dodge":11902,"128":11903,"informal":11904,"sorts":11905,"levi":11906,"buddha":11907,"villagers":11908,"##aka":11909,"chronicles":11910,"heavier":11911,"summoned":11912,"gateway":11913,"3000":11914,"eleventh":11915,"jewelry":11916,"translations":11917,"accordingly":11918,"seas":11919,"##ency":11920,"fiber":11921,"pyramid":11922,"cubic":11923,"dragging":11924,"##ista":11925,"caring":11926,"##ops":11927,"android":11928,"contacted":11929,"lunar":11930,"##dt":11931,"kai":11932,"lisbon":11933,"patted":11934,"1826":11935,"sacramento":11936,"theft":11937,"madagascar":11938,"subtropical":11939,"disputes":11940,"ta":11941,"holidays":11942,"piper":11943,"willow":11944,"mare":11945,"cane":11946,"itunes":11947,"newfoundland":11948,"benny":11949,"companions":11950,"dong":11951,"raj":11952,"observe":11953,"roar":11954,"charming":11955,"plaque":11956,"tibetan":11957,"fossils":11958,"enacted":11959,"manning":11960,"bubble":11961,"tina":11962,"tanzania":11963,"##eda":11964,"##hir":11965,"funk":11966,"swamp":11967,"deputies":11968,"cloak":11969,"ufc":11970,"scenario":11971,"par":11972,"scratch":11973,"metals":11974,"anthem":11975,"guru":11976,"engaging":11977,"specially":11978,"##boat":11979,"dialects":11980,"nineteen":11981,"cecil":11982,"duet":11983,"disability":11984,"messenger":11985,"unofficial":11986,"##lies":11987,"defunct":11988,"eds":11989,"moonlight":11990,"drainage":11991,"surname":11992,"puzzle":11993,"honda":11994,"switching":11995,"conservatives":11996,"mammals":11997,"knox":11998,"broadcaster":11999,"sidewalk":12000,"cope":12001,"##ried":12002,"benson":12003,"princes":12004,"peterson":12005,"##sal":12006,"bedford":12007,"sharks":12008,"eli":12009,"wreck":12010,"alberto":12011,"gasp":12012,"archaeology":12013,"lgbt":12014,"teaches":12015,"securities":12016,"madness":12017,"compromise":12018,"waving":12019,"coordination":12020,"davidson":12021,"visions":12022,"leased":12023,"possibilities":12024,"eighty":12025,"jun":12026,"fernandez":12027,"enthusiasm":12028,"assassin":12029,"sponsorship":12030,"reviewer":12031,"kingdoms":12032,"estonian":12033,"laboratories":12034,"##fy":12035,"##nal":12036,"applies":12037,"verb":12038,"celebrations":12039,"##zzo":12040,"rowing":12041,"lightweight":12042,"sadness":12043,"submit":12044,"mvp":12045,"balanced":12046,"dude":12047,"##vas":12048,"explicitly":12049,"metric":12050,"magnificent":12051,"mound":12052,"brett":12053,"mohammad":12054,"mistakes":12055,"irregular":12056,"##hing":12057,"##ass":12058,"sanders":12059,"betrayed":12060,"shipped":12061,"surge":12062,"##enburg":12063,"reporters":12064,"termed":12065,"georg":12066,"pity":12067,"verbal":12068,"bulls":12069,"abbreviated":12070,"enabling":12071,"appealed":12072,"##are":12073,"##atic":12074,"sicily":12075,"sting":12076,"heel":12077,"sweetheart":12078,"bart":12079,"spacecraft":12080,"brutal":12081,"monarchy":12082,"##tter":12083,"aberdeen":12084,"cameo":12085,"diane":12086,"##ub":12087,"survivor":12088,"clyde":12089,"##aries":12090,"complaint":12091,"##makers":12092,"clarinet":12093,"delicious":12094,"chilean":12095,"karnataka":12096,"coordinates":12097,"1818":12098,"panties":12099,"##rst":12100,"pretending":12101,"ar":12102,"dramatically":12103,"kiev":12104,"bella":12105,"tends":12106,"distances":12107,"113":12108,"catalog":12109,"launching":12110,"instances":12111,"telecommunications":12112,"portable":12113,"lindsay":12114,"vatican":12115,"##eim":12116,"angles":12117,"aliens":12118,"marker":12119,"stint":12120,"screens":12121,"bolton":12122,"##rne":12123,"judy":12124,"wool":12125,"benedict":12126,"plasma":12127,"europa":12128,"spark":12129,"imaging":12130,"filmmaker":12131,"swiftly":12132,"##een":12133,"contributor":12134,"##nor":12135,"opted":12136,"stamps":12137,"apologize":12138,"financing":12139,"butter":12140,"gideon":12141,"sophisticated":12142,"alignment":12143,"avery":12144,"chemicals":12145,"yearly":12146,"speculation":12147,"prominence":12148,"professionally":12149,"##ils":12150,"immortal":12151,"institutional":12152,"inception":12153,"wrists":12154,"identifying":12155,"tribunal":12156,"derives":12157,"gains":12158,"##wo":12159,"papal":12160,"preference":12161,"linguistic":12162,"vince":12163,"operative":12164,"brewery":12165,"##ont":12166,"unemployment":12167,"boyd":12168,"##ured":12169,"##outs":12170,"albeit":12171,"prophet":12172,"1813":12173,"bi":12174,"##rr":12175,"##face":12176,"##rad":12177,"quarterly":12178,"asteroid":12179,"cleaned":12180,"radius":12181,"temper":12182,"##llen":12183,"telugu":12184,"jerk":12185,"viscount":12186,"menu":12187,"##ote":12188,"glimpse":12189,"##aya":12190,"yacht":12191,"hawaiian":12192,"baden":12193,"##rl":12194,"laptop":12195,"readily":12196,"##gu":12197,"monetary":12198,"offshore":12199,"scots":12200,"watches":12201,"##yang":12202,"##arian":12203,"upgrade":12204,"needle":12205,"xbox":12206,"lea":12207,"encyclopedia":12208,"flank":12209,"fingertips":12210,"##pus":12211,"delight":12212,"teachings":12213,"confirm":12214,"roth":12215,"beaches":12216,"midway":12217,"winters":12218,"##iah":12219,"teasing":12220,"daytime":12221,"beverly":12222,"gambling":12223,"bonnie":12224,"##backs":12225,"regulated":12226,"clement":12227,"hermann":12228,"tricks":12229,"knot":12230,"##shing":12231,"##uring":12232,"##vre":12233,"detached":12234,"ecological":12235,"owed":12236,"specialty":12237,"byron":12238,"inventor":12239,"bats":12240,"stays":12241,"screened":12242,"unesco":12243,"midland":12244,"trim":12245,"affection":12246,"##ander":12247,"##rry":12248,"jess":12249,"thoroughly":12250,"feedback":12251,"##uma":12252,"chennai":12253,"strained":12254,"heartbeat":12255,"wrapping":12256,"overtime":12257,"pleaded":12258,"##sworth":12259,"mon":12260,"leisure":12261,"oclc":12262,"##tate":12263,"##ele":12264,"feathers":12265,"angelo":12266,"thirds":12267,"nuts":12268,"surveys":12269,"clever":12270,"gill":12271,"commentator":12272,"##dos":12273,"darren":12274,"rides":12275,"gibraltar":12276,"##nc":12277,"##mu":12278,"dissolution":12279,"dedication":12280,"shin":12281,"meals":12282,"saddle":12283,"elvis":12284,"reds":12285,"chaired":12286,"taller":12287,"appreciation":12288,"functioning":12289,"niece":12290,"favored":12291,"advocacy":12292,"robbie":12293,"criminals":12294,"suffolk":12295,"yugoslav":12296,"passport":12297,"constable":12298,"congressman":12299,"hastings":12300,"vera":12301,"##rov":12302,"consecrated":12303,"sparks":12304,"ecclesiastical":12305,"confined":12306,"##ovich":12307,"muller":12308,"floyd":12309,"nora":12310,"1822":12311,"paved":12312,"1827":12313,"cumberland":12314,"ned":12315,"saga":12316,"spiral":12317,"##flow":12318,"appreciated":12319,"yi":12320,"collaborative":12321,"treating":12322,"similarities":12323,"feminine":12324,"finishes":12325,"##ib":12326,"jade":12327,"import":12328,"##nse":12329,"##hot":12330,"champagne":12331,"mice":12332,"securing":12333,"celebrities":12334,"helsinki":12335,"attributes":12336,"##gos":12337,"cousins":12338,"phases":12339,"ache":12340,"lucia":12341,"gandhi":12342,"submission":12343,"vicar":12344,"spear":12345,"shine":12346,"tasmania":12347,"biting":12348,"detention":12349,"constitute":12350,"tighter":12351,"seasonal":12352,"##gus":12353,"terrestrial":12354,"matthews":12355,"##oka":12356,"effectiveness":12357,"parody":12358,"philharmonic":12359,"##onic":12360,"1816":12361,"strangers":12362,"encoded":12363,"consortium":12364,"guaranteed":12365,"regards":12366,"shifts":12367,"tortured":12368,"collision":12369,"supervisor":12370,"inform":12371,"broader":12372,"insight":12373,"theaters":12374,"armour":12375,"emeritus":12376,"blink":12377,"incorporates":12378,"mapping":12379,"##50":12380,"##ein":12381,"handball":12382,"flexible":12383,"##nta":12384,"substantially":12385,"generous":12386,"thief":12387,"##own":12388,"carr":12389,"loses":12390,"1793":12391,"prose":12392,"ucla":12393,"romeo":12394,"generic":12395,"metallic":12396,"realization":12397,"damages":12398,"mk":12399,"commissioners":12400,"zach":12401,"default":12402,"##ther":12403,"helicopters":12404,"lengthy":12405,"stems":12406,"spa":12407,"partnered":12408,"spectators":12409,"rogue":12410,"indication":12411,"penalties":12412,"teresa":12413,"1801":12414,"sen":12415,"##tric":12416,"dalton":12417,"##wich":12418,"irving":12419,"photographic":12420,"##vey":12421,"dell":12422,"deaf":12423,"peters":12424,"excluded":12425,"unsure":12426,"##vable":12427,"patterson":12428,"crawled":12429,"##zio":12430,"resided":12431,"whipped":12432,"latvia":12433,"slower":12434,"ecole":12435,"pipes":12436,"employers":12437,"maharashtra":12438,"comparable":12439,"va":12440,"textile":12441,"pageant":12442,"##gel":12443,"alphabet":12444,"binary":12445,"irrigation":12446,"chartered":12447,"choked":12448,"antoine":12449,"offs":12450,"waking":12451,"supplement":12452,"##wen":12453,"quantities":12454,"demolition":12455,"regain":12456,"locate":12457,"urdu":12458,"folks":12459,"alt":12460,"114":12461,"##mc":12462,"scary":12463,"andreas":12464,"whites":12465,"##ava":12466,"classrooms":12467,"mw":12468,"aesthetic":12469,"publishes":12470,"valleys":12471,"guides":12472,"cubs":12473,"johannes":12474,"bryant":12475,"conventions":12476,"affecting":12477,"##itt":12478,"drain":12479,"awesome":12480,"isolation":12481,"prosecutor":12482,"ambitious":12483,"apology":12484,"captive":12485,"downs":12486,"atmospheric":12487,"lorenzo":12488,"aisle":12489,"beef":12490,"foul":12491,"##onia":12492,"kidding":12493,"composite":12494,"disturbed":12495,"illusion":12496,"natives":12497,"##ffer":12498,"emi":12499,"rockets":12500,"riverside":12501,"wartime":12502,"painters":12503,"adolf":12504,"melted":12505,"##ail":12506,"uncertainty":12507,"simulation":12508,"hawks":12509,"progressed":12510,"meantime":12511,"builder":12512,"spray":12513,"breach":12514,"unhappy":12515,"regina":12516,"russians":12517,"##urg":12518,"determining":12519,"##tation":12520,"tram":12521,"1806":12522,"##quin":12523,"aging":12524,"##12":12525,"1823":12526,"garion":12527,"rented":12528,"mister":12529,"diaz":12530,"terminated":12531,"clip":12532,"1817":12533,"depend":12534,"nervously":12535,"disco":12536,"owe":12537,"defenders":12538,"shiva":12539,"notorious":12540,"disbelief":12541,"shiny":12542,"worcester":12543,"##gation":12544,"##yr":12545,"trailing":12546,"undertook":12547,"islander":12548,"belarus":12549,"limitations":12550,"watershed":12551,"fuller":12552,"overlooking":12553,"utilized":12554,"raphael":12555,"1819":12556,"synthetic":12557,"breakdown":12558,"klein":12559,"##nate":12560,"moaned":12561,"memoir":12562,"lamb":12563,"practicing":12564,"##erly":12565,"cellular":12566,"arrows":12567,"exotic":12568,"##graphy":12569,"witches":12570,"117":12571,"charted":12572,"rey":12573,"hut":12574,"hierarchy":12575,"subdivision":12576,"freshwater":12577,"giuseppe":12578,"aloud":12579,"reyes":12580,"qatar":12581,"marty":12582,"sideways":12583,"utterly":12584,"sexually":12585,"jude":12586,"prayers":12587,"mccarthy":12588,"softball":12589,"blend":12590,"damien":12591,"##gging":12592,"##metric":12593,"wholly":12594,"erupted":12595,"lebanese":12596,"negro":12597,"revenues":12598,"tasted":12599,"comparative":12600,"teamed":12601,"transaction":12602,"labeled":12603,"maori":12604,"sovereignty":12605,"parkway":12606,"trauma":12607,"gran":12608,"malay":12609,"121":12610,"advancement":12611,"descendant":12612,"2020":12613,"buzz":12614,"salvation":12615,"inventory":12616,"symbolic":12617,"##making":12618,"antarctica":12619,"mps":12620,"##gas":12621,"##bro":12622,"mohammed":12623,"myanmar":12624,"holt":12625,"submarines":12626,"tones":12627,"##lman":12628,"locker":12629,"patriarch":12630,"bangkok":12631,"emerson":12632,"remarks":12633,"predators":12634,"kin":12635,"afghan":12636,"confession":12637,"norwich":12638,"rental":12639,"emerge":12640,"advantages":12641,"##zel":12642,"rca":12643,"##hold":12644,"shortened":12645,"storms":12646,"aidan":12647,"##matic":12648,"autonomy":12649,"compliance":12650,"##quet":12651,"dudley":12652,"atp":12653,"##osis":12654,"1803":12655,"motto":12656,"documentation":12657,"summary":12658,"professors":12659,"spectacular":12660,"christina":12661,"archdiocese":12662,"flashing":12663,"innocence":12664,"remake":12665,"##dell":12666,"psychic":12667,"reef":12668,"scare":12669,"employ":12670,"rs":12671,"sticks":12672,"meg":12673,"gus":12674,"leans":12675,"##ude":12676,"accompany":12677,"bergen":12678,"tomas":12679,"##iko":12680,"doom":12681,"wages":12682,"pools":12683,"##nch":12684,"##bes":12685,"breasts":12686,"scholarly":12687,"alison":12688,"outline":12689,"brittany":12690,"breakthrough":12691,"willis":12692,"realistic":12693,"##cut":12694,"##boro":12695,"competitor":12696,"##stan":12697,"pike":12698,"picnic":12699,"icon":12700,"designing":12701,"commercials":12702,"washing":12703,"villain":12704,"skiing":12705,"micro":12706,"costumes":12707,"auburn":12708,"halted":12709,"executives":12710,"##hat":12711,"logistics":12712,"cycles":12713,"vowel":12714,"applicable":12715,"barrett":12716,"exclaimed":12717,"eurovision":12718,"eternity":12719,"ramon":12720,"##umi":12721,"##lls":12722,"modifications":12723,"sweeping":12724,"disgust":12725,"##uck":12726,"torch":12727,"aviv":12728,"ensuring":12729,"rude":12730,"dusty":12731,"sonic":12732,"donovan":12733,"outskirts":12734,"cu":12735,"pathway":12736,"##band":12737,"##gun":12738,"##lines":12739,"disciplines":12740,"acids":12741,"cadet":12742,"paired":12743,"##40":12744,"sketches":12745,"##sive":12746,"marriages":12747,"##⁺":12748,"folding":12749,"peers":12750,"slovak":12751,"implies":12752,"admired":12753,"##beck":12754,"1880s":12755,"leopold":12756,"instinct":12757,"attained":12758,"weston":12759,"megan":12760,"horace":12761,"##ination":12762,"dorsal":12763,"ingredients":12764,"evolutionary":12765,"##its":12766,"complications":12767,"deity":12768,"lethal":12769,"brushing":12770,"levy":12771,"deserted":12772,"institutes":12773,"posthumously":12774,"delivering":12775,"telescope":12776,"coronation":12777,"motivated":12778,"rapids":12779,"luc":12780,"flicked":12781,"pays":12782,"volcano":12783,"tanner":12784,"weighed":12785,"##nica":12786,"crowds":12787,"frankie":12788,"gifted":12789,"addressing":12790,"granddaughter":12791,"winding":12792,"##rna":12793,"constantine":12794,"gomez":12795,"##front":12796,"landscapes":12797,"rudolf":12798,"anthropology":12799,"slate":12800,"werewolf":12801,"##lio":12802,"astronomy":12803,"circa":12804,"rouge":12805,"dreaming":12806,"sack":12807,"knelt":12808,"drowned":12809,"naomi":12810,"prolific":12811,"tracked":12812,"freezing":12813,"herb":12814,"##dium":12815,"agony":12816,"randall":12817,"twisting":12818,"wendy":12819,"deposit":12820,"touches":12821,"vein":12822,"wheeler":12823,"##bbled":12824,"##bor":12825,"batted":12826,"retaining":12827,"tire":12828,"presently":12829,"compare":12830,"specification":12831,"daemon":12832,"nigel":12833,"##grave":12834,"merry":12835,"recommendation":12836,"czechoslovakia":12837,"sandra":12838,"ng":12839,"roma":12840,"##sts":12841,"lambert":12842,"inheritance":12843,"sheikh":12844,"winchester":12845,"cries":12846,"examining":12847,"##yle":12848,"comeback":12849,"cuisine":12850,"nave":12851,"##iv":12852,"ko":12853,"retrieve":12854,"tomatoes":12855,"barker":12856,"polished":12857,"defining":12858,"irene":12859,"lantern":12860,"personalities":12861,"begging":12862,"tract":12863,"swore":12864,"1809":12865,"175":12866,"##gic":12867,"omaha":12868,"brotherhood":12869,"##rley":12870,"haiti":12871,"##ots":12872,"exeter":12873,"##ete":12874,"##zia":12875,"steele":12876,"dumb":12877,"pearson":12878,"210":12879,"surveyed":12880,"elisabeth":12881,"trends":12882,"##ef":12883,"fritz":12884,"##rf":12885,"premium":12886,"bugs":12887,"fraction":12888,"calmly":12889,"viking":12890,"##birds":12891,"tug":12892,"inserted":12893,"unusually":12894,"##ield":12895,"confronted":12896,"distress":12897,"crashing":12898,"brent":12899,"turks":12900,"resign":12901,"##olo":12902,"cambodia":12903,"gabe":12904,"sauce":12905,"##kal":12906,"evelyn":12907,"116":12908,"extant":12909,"clusters":12910,"quarry":12911,"teenagers":12912,"luna":12913,"##lers":12914,"##ister":12915,"affiliation":12916,"drill":12917,"##ashi":12918,"panthers":12919,"scenic":12920,"libya":12921,"anita":12922,"strengthen":12923,"inscriptions":12924,"##cated":12925,"lace":12926,"sued":12927,"judith":12928,"riots":12929,"##uted":12930,"mint":12931,"##eta":12932,"preparations":12933,"midst":12934,"dub":12935,"challenger":12936,"##vich":12937,"mock":12938,"cf":12939,"displaced":12940,"wicket":12941,"breaths":12942,"enables":12943,"schmidt":12944,"analyst":12945,"##lum":12946,"ag":12947,"highlight":12948,"automotive":12949,"axe":12950,"josef":12951,"newark":12952,"sufficiently":12953,"resembles":12954,"50th":12955,"##pal":12956,"flushed":12957,"mum":12958,"traits":12959,"##ante":12960,"commodore":12961,"incomplete":12962,"warming":12963,"titular":12964,"ceremonial":12965,"ethical":12966,"118":12967,"celebrating":12968,"eighteenth":12969,"cao":12970,"lima":12971,"medalist":12972,"mobility":12973,"strips":12974,"snakes":12975,"##city":12976,"miniature":12977,"zagreb":12978,"barton":12979,"escapes":12980,"umbrella":12981,"automated":12982,"doubted":12983,"differs":12984,"cooled":12985,"georgetown":12986,"dresden":12987,"cooked":12988,"fade":12989,"wyatt":12990,"rna":12991,"jacobs":12992,"carlton":12993,"abundant":12994,"stereo":12995,"boost":12996,"madras":12997,"inning":12998,"##hia":12999,"spur":13000,"ip":13001,"malayalam":13002,"begged":13003,"osaka":13004,"groan":13005,"escaping":13006,"charging":13007,"dose":13008,"vista":13009,"##aj":13010,"bud":13011,"papa":13012,"communists":13013,"advocates":13014,"edged":13015,"tri":13016,"##cent":13017,"resemble":13018,"peaking":13019,"necklace":13020,"fried":13021,"montenegro":13022,"saxony":13023,"goose":13024,"glances":13025,"stuttgart":13026,"curator":13027,"recruit":13028,"grocery":13029,"sympathetic":13030,"##tting":13031,"##fort":13032,"127":13033,"lotus":13034,"randolph":13035,"ancestor":13036,"##rand":13037,"succeeding":13038,"jupiter":13039,"1798":13040,"macedonian":13041,"##heads":13042,"hiking":13043,"1808":13044,"handing":13045,"fischer":13046,"##itive":13047,"garbage":13048,"node":13049,"##pies":13050,"prone":13051,"singular":13052,"papua":13053,"inclined":13054,"attractions":13055,"italia":13056,"pouring":13057,"motioned":13058,"grandma":13059,"garnered":13060,"jacksonville":13061,"corp":13062,"ego":13063,"ringing":13064,"aluminum":13065,"##hausen":13066,"ordering":13067,"##foot":13068,"drawer":13069,"traders":13070,"synagogue":13071,"##play":13072,"##kawa":13073,"resistant":13074,"wandering":13075,"fragile":13076,"fiona":13077,"teased":13078,"var":13079,"hardcore":13080,"soaked":13081,"jubilee":13082,"decisive":13083,"exposition":13084,"mercer":13085,"poster":13086,"valencia":13087,"hale":13088,"kuwait":13089,"1811":13090,"##ises":13091,"##wr":13092,"##eed":13093,"tavern":13094,"gamma":13095,"122":13096,"johan":13097,"##uer":13098,"airways":13099,"amino":13100,"gil":13101,"##ury":13102,"vocational":13103,"domains":13104,"torres":13105,"##sp":13106,"generator":13107,"folklore":13108,"outcomes":13109,"##keeper":13110,"canberra":13111,"shooter":13112,"fl":13113,"beams":13114,"confrontation":13115,"##lling":13116,"##gram":13117,"feb":13118,"aligned":13119,"forestry":13120,"pipeline":13121,"jax":13122,"motorway":13123,"conception":13124,"decay":13125,"##tos":13126,"coffin":13127,"##cott":13128,"stalin":13129,"1805":13130,"escorted":13131,"minded":13132,"##nam":13133,"sitcom":13134,"purchasing":13135,"twilight":13136,"veronica":13137,"additions":13138,"passive":13139,"tensions":13140,"straw":13141,"123":13142,"frequencies":13143,"1804":13144,"refugee":13145,"cultivation":13146,"##iate":13147,"christie":13148,"clary":13149,"bulletin":13150,"crept":13151,"disposal":13152,"##rich":13153,"##zong":13154,"processor":13155,"crescent":13156,"##rol":13157,"bmw":13158,"emphasized":13159,"whale":13160,"nazis":13161,"aurora":13162,"##eng":13163,"dwelling":13164,"hauled":13165,"sponsors":13166,"toledo":13167,"mega":13168,"ideology":13169,"theatres":13170,"tessa":13171,"cerambycidae":13172,"saves":13173,"turtle":13174,"cone":13175,"suspects":13176,"kara":13177,"rusty":13178,"yelling":13179,"greeks":13180,"mozart":13181,"shades":13182,"cocked":13183,"participant":13184,"##tro":13185,"shire":13186,"spit":13187,"freeze":13188,"necessity":13189,"##cos":13190,"inmates":13191,"nielsen":13192,"councillors":13193,"loaned":13194,"uncommon":13195,"omar":13196,"peasants":13197,"botanical":13198,"offspring":13199,"daniels":13200,"formations":13201,"jokes":13202,"1794":13203,"pioneers":13204,"sigma":13205,"licensing":13206,"##sus":13207,"wheelchair":13208,"polite":13209,"1807":13210,"liquor":13211,"pratt":13212,"trustee":13213,"##uta":13214,"forewings":13215,"balloon":13216,"##zz":13217,"kilometre":13218,"camping":13219,"explicit":13220,"casually":13221,"shawn":13222,"foolish":13223,"teammates":13224,"nm":13225,"hassan":13226,"carrie":13227,"judged":13228,"satisfy":13229,"vanessa":13230,"knives":13231,"selective":13232,"cnn":13233,"flowed":13234,"##lice":13235,"eclipse":13236,"stressed":13237,"eliza":13238,"mathematician":13239,"cease":13240,"cultivated":13241,"##roy":13242,"commissions":13243,"browns":13244,"##ania":13245,"destroyers":13246,"sheridan":13247,"meadow":13248,"##rius":13249,"minerals":13250,"##cial":13251,"downstream":13252,"clash":13253,"gram":13254,"memoirs":13255,"ventures":13256,"baha":13257,"seymour":13258,"archie":13259,"midlands":13260,"edith":13261,"fare":13262,"flynn":13263,"invite":13264,"canceled":13265,"tiles":13266,"stabbed":13267,"boulder":13268,"incorporate":13269,"amended":13270,"camden":13271,"facial":13272,"mollusk":13273,"unreleased":13274,"descriptions":13275,"yoga":13276,"grabs":13277,"550":13278,"raises":13279,"ramp":13280,"shiver":13281,"##rose":13282,"coined":13283,"pioneering":13284,"tunes":13285,"qing":13286,"warwick":13287,"tops":13288,"119":13289,"melanie":13290,"giles":13291,"##rous":13292,"wandered":13293,"##inal":13294,"annexed":13295,"nov":13296,"30th":13297,"unnamed":13298,"##ished":13299,"organizational":13300,"airplane":13301,"normandy":13302,"stoke":13303,"whistle":13304,"blessing":13305,"violations":13306,"chased":13307,"holders":13308,"shotgun":13309,"##ctic":13310,"outlet":13311,"reactor":13312,"##vik":13313,"tires":13314,"tearing":13315,"shores":13316,"fortified":13317,"mascot":13318,"constituencies":13319,"nc":13320,"columnist":13321,"productive":13322,"tibet":13323,"##rta":13324,"lineage":13325,"hooked":13326,"oct":13327,"tapes":13328,"judging":13329,"cody":13330,"##gger":13331,"hansen":13332,"kashmir":13333,"triggered":13334,"##eva":13335,"solved":13336,"cliffs":13337,"##tree":13338,"resisted":13339,"anatomy":13340,"protesters":13341,"transparent":13342,"implied":13343,"##iga":13344,"injection":13345,"mattress":13346,"excluding":13347,"##mbo":13348,"defenses":13349,"helpless":13350,"devotion":13351,"##elli":13352,"growl":13353,"liberals":13354,"weber":13355,"phenomena":13356,"atoms":13357,"plug":13358,"##iff":13359,"mortality":13360,"apprentice":13361,"howe":13362,"convincing":13363,"aaa":13364,"swimmer":13365,"barber":13366,"leone":13367,"promptly":13368,"sodium":13369,"def":13370,"nowadays":13371,"arise":13372,"##oning":13373,"gloucester":13374,"corrected":13375,"dignity":13376,"norm":13377,"erie":13378,"##ders":13379,"elders":13380,"evacuated":13381,"sylvia":13382,"compression":13383,"##yar":13384,"hartford":13385,"pose":13386,"backpack":13387,"reasoning":13388,"accepts":13389,"24th":13390,"wipe":13391,"millimetres":13392,"marcel":13393,"##oda":13394,"dodgers":13395,"albion":13396,"1790":13397,"overwhelmed":13398,"aerospace":13399,"oaks":13400,"1795":13401,"showcase":13402,"acknowledge":13403,"recovering":13404,"nolan":13405,"ashe":13406,"hurts":13407,"geology":13408,"fashioned":13409,"disappearance":13410,"farewell":13411,"swollen":13412,"shrug":13413,"marquis":13414,"wimbledon":13415,"124":13416,"rue":13417,"1792":13418,"commemorate":13419,"reduces":13420,"experiencing":13421,"inevitable":13422,"calcutta":13423,"intel":13424,"##court":13425,"murderer":13426,"sticking":13427,"fisheries":13428,"imagery":13429,"bloom":13430,"280":13431,"brake":13432,"##inus":13433,"gustav":13434,"hesitation":13435,"memorable":13436,"po":13437,"viral":13438,"beans":13439,"accidents":13440,"tunisia":13441,"antenna":13442,"spilled":13443,"consort":13444,"treatments":13445,"aye":13446,"perimeter":13447,"##gard":13448,"donation":13449,"hostage":13450,"migrated":13451,"banker":13452,"addiction":13453,"apex":13454,"lil":13455,"trout":13456,"##ously":13457,"conscience":13458,"##nova":13459,"rams":13460,"sands":13461,"genome":13462,"passionate":13463,"troubles":13464,"##lets":13465,"##set":13466,"amid":13467,"##ibility":13468,"##ret":13469,"higgins":13470,"exceed":13471,"vikings":13472,"##vie":13473,"payne":13474,"##zan":13475,"muscular":13476,"##ste":13477,"defendant":13478,"sucking":13479,"##wal":13480,"ibrahim":13481,"fuselage":13482,"claudia":13483,"vfl":13484,"europeans":13485,"snails":13486,"interval":13487,"##garh":13488,"preparatory":13489,"statewide":13490,"tasked":13491,"lacrosse":13492,"viktor":13493,"##lation":13494,"angola":13495,"##hra":13496,"flint":13497,"implications":13498,"employs":13499,"teens":13500,"patrons":13501,"stall":13502,"weekends":13503,"barriers":13504,"scrambled":13505,"nucleus":13506,"tehran":13507,"jenna":13508,"parsons":13509,"lifelong":13510,"robots":13511,"displacement":13512,"5000":13513,"##bles":13514,"precipitation":13515,"##gt":13516,"knuckles":13517,"clutched":13518,"1802":13519,"marrying":13520,"ecology":13521,"marx":13522,"accusations":13523,"declare":13524,"scars":13525,"kolkata":13526,"mat":13527,"meadows":13528,"bermuda":13529,"skeleton":13530,"finalists":13531,"vintage":13532,"crawl":13533,"coordinate":13534,"affects":13535,"subjected":13536,"orchestral":13537,"mistaken":13538,"##tc":13539,"mirrors":13540,"dipped":13541,"relied":13542,"260":13543,"arches":13544,"candle":13545,"##nick":13546,"incorporating":13547,"wildly":13548,"fond":13549,"basilica":13550,"owl":13551,"fringe":13552,"rituals":13553,"whispering":13554,"stirred":13555,"feud":13556,"tertiary":13557,"slick":13558,"goat":13559,"honorable":13560,"whereby":13561,"skip":13562,"ricardo":13563,"stripes":13564,"parachute":13565,"adjoining":13566,"submerged":13567,"synthesizer":13568,"##gren":13569,"intend":13570,"positively":13571,"ninety":13572,"phi":13573,"beaver":13574,"partition":13575,"fellows":13576,"alexis":13577,"prohibition":13578,"carlisle":13579,"bizarre":13580,"fraternity":13581,"##bre":13582,"doubts":13583,"icy":13584,"cbc":13585,"aquatic":13586,"sneak":13587,"sonny":13588,"combines":13589,"airports":13590,"crude":13591,"supervised":13592,"spatial":13593,"merge":13594,"alfonso":13595,"##bic":13596,"corrupt":13597,"scan":13598,"undergo":13599,"##ams":13600,"disabilities":13601,"colombian":13602,"comparing":13603,"dolphins":13604,"perkins":13605,"##lish":13606,"reprinted":13607,"unanimous":13608,"bounced":13609,"hairs":13610,"underworld":13611,"midwest":13612,"semester":13613,"bucket":13614,"paperback":13615,"miniseries":13616,"coventry":13617,"demise":13618,"##leigh":13619,"demonstrations":13620,"sensor":13621,"rotating":13622,"yan":13623,"##hler":13624,"arrange":13625,"soils":13626,"##idge":13627,"hyderabad":13628,"labs":13629,"##dr":13630,"brakes":13631,"grandchildren":13632,"##nde":13633,"negotiated":13634,"rover":13635,"ferrari":13636,"continuation":13637,"directorate":13638,"augusta":13639,"stevenson":13640,"counterpart":13641,"gore":13642,"##rda":13643,"nursery":13644,"rican":13645,"ave":13646,"collectively":13647,"broadly":13648,"pastoral":13649,"repertoire":13650,"asserted":13651,"discovering":13652,"nordic":13653,"styled":13654,"fiba":13655,"cunningham":13656,"harley":13657,"middlesex":13658,"survives":13659,"tumor":13660,"tempo":13661,"zack":13662,"aiming":13663,"lok":13664,"urgent":13665,
[...]
